/* Copyright 2019 The TensorFlow Authors. All Rights Reserved.

Licensed under the Apache License, Version 2.0 (the "License");
you may not use this file except in compliance with the License.
You may obtain a copy of the License at

    http://www.apache.org/licenses/LICENSE-2.0

Unless required by applicable law or agreed to in writing, software
distributed under the License is distributed on an "AS IS" BASIS,
WITHOUT WARRANTIES OR CONDITIONS OF ANY KIND, either express or implied.
See the License for the specific language governing permissions and
limitations under the License.
==============================================================================*/

// Automatically created from a TensorFlow Lite flatbuffer using the command:
// xxd -i sine_model.tflite > sine_model_data.cc
// See the README for a full description of the creation process.

#include "ice_maker_model_data.h"

// We need to keep the data array aligned on some architectures.
#ifdef __has_attribute
#define HAVE_ATTRIBUTE(x) __has_attribute(x)
#else
#define HAVE_ATTRIBUTE(x) 0
#endif
#if HAVE_ATTRIBUTE(aligned) || (defined(__GNUC__) && !defined(__clang__))
#define DATA_ALIGN_ATTRIBUTE __attribute__((aligned(4)))
#else
#define DATA_ALIGN_ATTRIBUTE
#endif

const unsigned char g_ice_maker_model_data[] DATA_ALIGN_ATTRIBUTE = {
  0x1c, 0x00, 0x00, 0x00, 0x54, 0x46, 0x4c, 0x33, 0x00, 0x00, 0x12, 0x00,
  0x1c, 0x00, 0x04, 0x00, 0x08, 0x00, 0x0c, 0x00, 0x10, 0x00, 0x14, 0x00,
  0x00, 0x00, 0x18, 0x00, 0x12, 0x00, 0x00, 0x00, 0x03, 0x00, 0x00, 0x00,
  0x34, 0x33, 0x00, 0x00, 0x10, 0x00, 0x00, 0x00, 0x1c, 0x00, 0x00, 0x00,
  0x2c, 0x00, 0x00, 0x00, 0x0c, 0x00, 0x00, 0x00, 0x01, 0x00, 0x00, 0x00,
  0x34, 0x02, 0x00, 0x00, 0x01, 0x00, 0x00, 0x00, 0xfc, 0x01, 0x00, 0x00,
  0x0f, 0x00, 0x00, 0x00, 0x54, 0x4f, 0x43, 0x4f, 0x20, 0x43, 0x6f, 0x6e,
  0x76, 0x65, 0x72, 0x74, 0x65, 0x64, 0x2e, 0x00, 0x2b, 0x00, 0x00, 0x00,
  0xd0, 0x01, 0x00, 0x00, 0xc4, 0x01, 0x00, 0x00, 0xb0, 0x01, 0x00, 0x00,
  0x9c, 0x01, 0x00, 0x00, 0x90, 0x01, 0x00, 0x00, 0x84, 0x01, 0x00, 0x00,
  0x78, 0x01, 0x00, 0x00, 0x6c, 0x01, 0x00, 0x00, 0x60, 0x01, 0x00, 0x00,
  0x54, 0x01, 0x00, 0x00, 0x48, 0x01, 0x00, 0x00, 0x3c, 0x01, 0x00, 0x00,
  0x30, 0x01, 0x00, 0x00, 0x24, 0x01, 0x00, 0x00, 0x18, 0x01, 0x00, 0x00,
  0x0c, 0x01, 0x00, 0x00, 0x00, 0x01, 0x00, 0x00, 0xf8, 0x00, 0x00, 0x00,
  0xec, 0x00, 0x00, 0x00, 0xe4, 0x00, 0x00, 0x00, 0xdc, 0x00, 0x00, 0x00,
  0xd0, 0x00, 0x00, 0x00, 0xc8, 0x00, 0x00, 0x00, 0xbc, 0x00, 0x00, 0x00,
  0xb4, 0x00, 0x00, 0x00, 0xa8, 0x00, 0x00, 0x00, 0xa0, 0x00, 0x00, 0x00,
  0x98, 0x00, 0x00, 0x00, 0x8c, 0x00, 0x00, 0x00, 0x80, 0x00, 0x00, 0x00,
  0x74, 0x00, 0x00, 0x00, 0x6c, 0x00, 0x00, 0x00, 0x64, 0x00, 0x00, 0x00,
  0x5c, 0x00, 0x00, 0x00, 0x54, 0x00, 0x00, 0x00, 0x4c, 0x00, 0x00, 0x00,
  0x44, 0x00, 0x00, 0x00, 0x38, 0x00, 0x00, 0x00, 0x2c, 0x00, 0x00, 0x00,
  0x20, 0x00, 0x00, 0x00, 0x18, 0x00, 0x00, 0x00, 0x10, 0x00, 0x00, 0x00,
  0x04, 0x00, 0x00, 0x00, 0xea, 0xfe, 0xff, 0xff, 0x24, 0x01, 0x00, 0x00,
  0xa8, 0xd0, 0xff, 0xff, 0xac, 0xd0, 0xff, 0xff, 0xfa, 0xfe, 0xff, 0xff,
  0xec, 0x02, 0x00, 0x00, 0x02, 0xff, 0xff, 0xff, 0x44, 0x03, 0x00, 0x00,
  0x0a, 0xff, 0xff, 0xff, 0xc8, 0x03, 0x00, 0x00, 0xc8, 0xd0, 0xff, 0xff,
  0xcc, 0xd0, 0xff, 0xff, 0xd0, 0xd0, 0xff, 0xff, 0xd4, 0xd0, 0xff, 0xff,
  0xd8, 0xd0, 0xff, 0xff, 0xdc, 0xd0, 0xff, 0xff, 0x2a, 0xff, 0xff, 0xff,
  0x30, 0x07, 0x00, 0x00, 0x32, 0xff, 0xff, 0xff, 0xb0, 0x07, 0x00, 0x00,
  0x3a, 0xff, 0xff, 0xff, 0x1c, 0x08, 0x00, 0x00, 0xf8, 0xd0, 0xff, 0xff,
  0xfc, 0xd0, 0xff, 0xff, 0x4a, 0xff, 0xff, 0xff, 0x0c, 0x09, 0x00, 0x00,
  0x08, 0xd1, 0xff, 0xff, 0x56, 0xff, 0xff, 0xff, 0xb8, 0x09, 0x00, 0x00,
  0x14, 0xd1, 0xff, 0xff, 0x62, 0xff, 0xff, 0xff, 0x64, 0x0a, 0x00, 0x00,
  0x20, 0xd1, 0xff, 0xff, 0x24, 0xd1, 0xff, 0xff, 0x72, 0xff, 0xff, 0xff,
  0x78, 0x0b, 0x00, 0x00, 0x30, 0xd1, 0xff, 0xff, 0x7e, 0xff, 0xff, 0xff,
  0x18, 0x0c, 0x00, 0x00, 0x86, 0xff, 0xff, 0xff, 0x2c, 0x19, 0x00, 0x00,
  0x8e, 0xff, 0xff, 0xff, 0x9c, 0x19, 0x00, 0x00, 0x96, 0xff, 0xff, 0xff,
  0xa8, 0x1e, 0x00, 0x00, 0x9e, 0xff, 0xff, 0xff, 0x18, 0x1f, 0x00, 0x00,
  0xa6, 0xff, 0xff, 0xff, 0xcc, 0x21, 0x00, 0x00, 0xae, 0xff, 0xff, 0xff,
  0xb8, 0x23, 0x00, 0x00, 0xb6, 0xff, 0xff, 0xff, 0xa4, 0x25, 0x00, 0x00,
  0xbe, 0xff, 0xff, 0xff, 0x90, 0x27, 0x00, 0x00, 0xc6, 0xff, 0xff, 0xff,
  0x64, 0x29, 0x00, 0x00, 0xce, 0xff, 0xff, 0xff, 0xe8, 0x29, 0x00, 0x00,
  0xd6, 0xff, 0xff, 0xff, 0x0c, 0x2b, 0x00, 0x00, 0xde, 0xff, 0xff, 0xff,
  0xb4, 0x2b, 0x00, 0x00, 0xf6, 0xff, 0xff, 0xff, 0x24, 0x2c, 0x00, 0x00,
  0x00, 0x00, 0x06, 0x00, 0x0a, 0x00, 0x04, 0x00, 0x06, 0x00, 0x00, 0x00,
  0xdc, 0x2c, 0x00, 0x00, 0x00, 0x00, 0x06, 0x00, 0x08, 0x00, 0x04, 0x00,
  0x06, 0x00, 0x00, 0x00, 0x8c, 0x2d, 0x00, 0x00, 0xc4, 0xd1, 0xff, 0xff,
  0x06, 0x00, 0x00, 0x00, 0x31, 0x2e, 0x31, 0x34, 0x2e, 0x30, 0x00, 0x00,
  0x3c, 0xfb, 0xff, 0xff, 0x08, 0x00, 0x00, 0x00, 0x2a, 0x00, 0x00, 0x00,
  0x13, 0x00, 0x00, 0x00, 0x6d, 0x69, 0x6e, 0x5f, 0x72, 0x75, 0x6e, 0x74,
  0x69, 0x6d, 0x65, 0x5f, 0x76, 0x65, 0x72, 0x73, 0x69, 0x6f, 0x6e, 0x00,
  0x0c, 0x00, 0x14, 0x00, 0x04, 0x00, 0x08, 0x00, 0x0c, 0x00, 0x10, 0x00,
  0x0c, 0x00, 0x00, 0x00, 0x20, 0x00, 0x00, 0x00, 0x14, 0x00, 0x00, 0x00,
  0x08, 0x00, 0x00, 0x00, 0x40, 0x2d, 0x00, 0x00, 0x01, 0x00, 0x00, 0x00,
  0x00, 0x00, 0x00, 0x00, 0x01, 0x00, 0x00, 0x00, 0x01, 0x00, 0x00, 0x00,
  0x29, 0x00, 0x00, 0x00, 0x90, 0x0a, 0x00, 0x00, 0x34, 0x04, 0x00, 0x00,
  0xbc, 0x0a, 0x00, 0x00, 0x00, 0x09, 0x00, 0x00, 0xd8, 0x00, 0x00, 0x00,
  0xfc, 0x29, 0x00, 0x00, 0xc0, 0x2a, 0x00, 0x00, 0x40, 0x05, 0x00, 0x00,
  0x18, 0x2b, 0x00, 0x00, 0x08, 0x01, 0x00, 0x00, 0xc4, 0x09, 0x00, 0x00,
  0xd4, 0x2b, 0x00, 0x00, 0xc8, 0x17, 0x00, 0x00, 0x5c, 0x04, 0x00, 0x00,
  0x1c, 0x07, 0x00, 0x00, 0x30, 0x1d, 0x00, 0x00, 0x98, 0x2c, 0x00, 0x00,
  0x14, 0x18, 0x00, 0x00, 0x58, 0x05, 0x00, 0x00, 0xa8, 0x03, 0x00, 0x00,
  0x94, 0x1d, 0x00, 0x00, 0x48, 0x07, 0x00, 0x00, 0x7c, 0x04, 0x00, 0x00,
  0x44, 0x20, 0x00, 0x00, 0xc8, 0x05, 0x00, 0x00, 0xac, 0x06, 0x00, 0x00,
  0x98, 0x01, 0x00, 0x00, 0x30, 0x06, 0x00, 0x00, 0xa0, 0x07, 0x00, 0x00,
  0x20, 0x22, 0x00, 0x00, 0xdc, 0x07, 0x00, 0x00, 0x4c, 0x08, 0x00, 0x00,
  0x08, 0x24, 0x00, 0x00, 0x08, 0x01, 0x00, 0x00, 0x1c, 0x00, 0x00, 0x00,
  0xf0, 0x25, 0x00, 0x00, 0xe0, 0x27, 0x00, 0x00, 0x84, 0x04, 0x00, 0x00,
  0x4c, 0x28, 0x00, 0x00, 0x94, 0x09, 0x00, 0x00, 0x08, 0x09, 0x00, 0x00,
  0xda, 0xd3, 0xff, 0xff, 0x10, 0x00, 0x00, 0x00, 0x29, 0x00, 0x00, 0x00,
  0x14, 0x00, 0x00, 0x00, 0x30, 0x00, 0x00, 0x00, 0x02, 0x00, 0x00, 0x00,
  0x01, 0x00, 0x00, 0x00, 0x0a, 0x00, 0x00, 0x00, 0x19, 0x00, 0x00, 0x00,
  0x73, 0x65, 0x71, 0x75, 0x65, 0x6e, 0x74, 0x69, 0x61, 0x6c, 0x5f, 0x31,
  0x2f, 0x64, 0x65, 0x6e, 0x73, 0x65, 0x5f, 0x37, 0x2f, 0x52, 0x65, 0x6c,
  0x75, 0x00, 0x00, 0x00, 0x10, 0xd3, 0xff, 0xff, 0x1e, 0xd4, 0xff, 0xff,
  0x10, 0x00, 0x00, 0x00, 0x28, 0x00, 0x00, 0x00, 0x14, 0x00, 0x00, 0x00,
  0x30, 0x00, 0x00, 0x00, 0x02, 0x00, 0x00, 0x00, 0x01, 0x00, 0x00, 0x00,
  0x14, 0x00, 0x00, 0x00, 0x19, 0x00, 0x00, 0x00, 0x73, 0x65, 0x71, 0x75,
  0x65, 0x6e, 0x74, 0x69, 0x61, 0x6c, 0x5f, 0x31, 0x2f, 0x64, 0x65, 0x6e,
  0x73, 0x65, 0x5f, 0x31, 0x2f, 0x52, 0x65, 0x6c, 0x75, 0x00, 0x00, 0x00,
  0x54, 0xd3, 0xff, 0xff, 0x62, 0xd4, 0xff, 0xff, 0x10, 0x00, 0x00, 0x00,
  0x27, 0x00, 0x00, 0x00, 0x10, 0x00, 0x00, 0x00, 0x34, 0x00, 0x00, 0x00,
  0x01, 0x00, 0x00, 0x00, 0x05, 0x00, 0x00, 0x00, 0x21, 0x00, 0x00, 0x00,
  0x73, 0x65, 0x71, 0x75, 0x65, 0x6e, 0x74, 0x69, 0x61, 0x6c, 0x5f, 0x31,
  0x2f, 0x64, 0x65, 0x6e, 0x73, 0x65, 0x5f, 0x31, 0x31, 0x2f, 0x4d, 0x61,
  0x74, 0x4d, 0x75, 0x6c, 0x5f, 0x62, 0x69, 0x61, 0x73, 0x00, 0x00, 0x00,
  0x9c, 0xd3, 0xff, 0xff, 0x14, 0x00, 0x00, 0x00, 0xc0, 0x01, 0x4e, 0xbe,
  0x55, 0xc0, 0x39, 0xbf, 0xdb, 0xa3, 0x9d, 0x3e, 0xb9, 0x71, 0x23, 0x3f,
  0x1a, 0xdf, 0x6a, 0x3e, 0xc2, 0xd4, 0xff, 0xff, 0x10, 0x00, 0x00, 0x00,
  0x26, 0x00, 0x00, 0x00, 0x10, 0x00, 0x00, 0x00, 0x34, 0x00, 0x00, 0x00,
  0x01, 0x00, 0x00, 0x00, 0x0a, 0x00, 0x00, 0x00, 0x20, 0x00, 0x00, 0x00,
  0x73, 0x65, 0x71, 0x75, 0x65, 0x6e, 0x74, 0x69, 0x61, 0x6c, 0x5f, 0x31,
  0x2f, 0x64, 0x65, 0x6e, 0x73, 0x65, 0x5f, 0x37, 0x2f, 0x4d, 0x61, 0x74,
  0x4d, 0x75, 0x6c, 0x5f, 0x62, 0x69, 0x61, 0x73, 0x00, 0x00, 0x00, 0x00,
  0xfc, 0xd3, 0xff, 0xff, 0x28, 0x00, 0x00, 0x00, 0xfd, 0xa8, 0x09, 0xbe,
  0x63, 0xda, 0x28, 0xbe, 0x93, 0xd6, 0xf4, 0x3b, 0x8f, 0x9f, 0xaf, 0xbd,
  0x76, 0x1a, 0x35, 0xbd, 0xec, 0x67, 0x32, 0x3b, 0x99, 0x83, 0xed, 0x3a,
  0x1e, 0x4e, 0xc5, 0x3d, 0x7d, 0x9e, 0x7d, 0x3d, 0xbf, 0x5a, 0x67, 0xba,
  0x36, 0xd5, 0xff, 0xff, 0x10, 0x00, 0x00, 0x00, 0x25, 0x00, 0x00, 0x00,
  0x14, 0x00, 0x00, 0x00, 0x4c, 0x00, 0x00, 0x00, 0x02, 0x00, 0x00, 0x00,
  0x0a, 0x00, 0x00, 0x00, 0x0a, 0x00, 0x00, 0x00, 0x34, 0x00, 0x00, 0x00,
  0x73, 0x65, 0x71, 0x75, 0x65, 0x6e, 0x74, 0x69, 0x61, 0x6c, 0x5f, 0x31,
  0x2f, 0x64, 0x65, 0x6e, 0x73, 0x65, 0x5f, 0x35, 0x2f, 0x4d, 0x61, 0x74,
  0x4d, 0x75, 0x6c, 0x2f, 0x52, 0x65, 0x61, 0x64, 0x56, 0x61, 0x72, 0x69,
  0x61, 0x62, 0x6c, 0x65, 0x4f, 0x70, 0x2f, 0x74, 0x72, 0x61, 0x6e, 0x73,
  0x70, 0x6f, 0x73, 0x65, 0x00, 0x00, 0x00, 0x00, 0x88, 0xd4, 0xff, 0xff,
  0x90, 0x01, 0x00, 0x00, 0xd2, 0xdc, 0x78, 0xbe, 0xab, 0xf9, 0x51, 0xbd,
  0x73, 0x40, 0x4b, 0xbe, 0x93, 0x76, 0xf0, 0xbd, 0x2b, 0xff, 0x49, 0xbe,
  0x9a, 0x8b, 0x8e, 0x3c, 0xdc, 0xda, 0x3e, 0x3e, 0xe5, 0xf5, 0x5c, 0x3d,
  0xe8, 0xe3, 0x78, 0xbe, 0xc6, 0x3d, 0xae, 0x3e, 0x17, 0x44, 0x86, 0xbd,
  0x3b, 0xc7, 0x28, 0xbe, 0x9f, 0xd9, 0xe4, 0x3d, 0xf4, 0xad, 0x19, 0xbd,
  0xf0, 0x7c, 0x8a, 0xbe, 0xcd, 0xbd, 0x71, 0x3e, 0x19, 0x47, 0x19, 0xbc,
  0x01, 0x60, 0xca, 0x3e, 0x89, 0x75, 0x99, 0x3e, 0x3a, 0xa6, 0x93, 0x3e,
  0xf2, 0x5b, 0x6b, 0xbe, 0x22, 0xc3, 0xb4, 0x3e, 0x3d, 0x10, 0xa5, 0x3e,
  0x40, 0x1c, 0x43, 0x3e, 0x2b, 0x7a, 0xb5, 0x3e, 0xbf, 0xf8, 0x8c, 0xbe,
  0xc7, 0xec, 0x16, 0x3f, 0x1b, 0xa4, 0xfc, 0x3b, 0x31, 0xe5, 0x53, 0xbe,
  0xbd, 0x74, 0xa9, 0x3e, 0x18, 0x25, 0x21, 0x3e, 0x7b, 0xe3, 0x1e, 0xbe,
  0x24, 0xfd, 0x8c, 0x3e, 0x43, 0x7f, 0xdc, 0xbd, 0xf3, 0xe4, 0x93, 0x3d,
  0xf5, 0x99, 0x25, 0x3e, 0x70, 0x90, 0x0f, 0x3d, 0xad, 0x27, 0x33, 0x3e,
  0xde, 0x77, 0x98, 0x3e, 0xd5, 0x34, 0x54, 0x3e, 0x5b, 0x2c, 0x33, 0xbd,
  0xb7, 0x18, 0xa1, 0x3c, 0x4b, 0x55, 0x53, 0x3e, 0x78, 0x5c, 0x25, 0x3d,
  0xe6, 0x28, 0x45, 0xbd, 0x67, 0xce, 0x57, 0x3d, 0xbc, 0x87, 0xb3, 0xbd,
  0x47, 0xab, 0xc5, 0x3c, 0x9e, 0x54, 0x8b, 0x3e, 0x1a, 0x52, 0xda, 0xbd,
  0x52, 0x08, 0x9c, 0x3d, 0xd9, 0xfb, 0x9c, 0xbd, 0x1a, 0x74, 0x8a, 0x3b,
  0x30, 0xa6, 0x00, 0xbe, 0xd9, 0x7a, 0x58, 0xbe, 0x93, 0xc5, 0x88, 0xbb,
  0x41, 0xc3, 0x82, 0xbe, 0x19, 0x27, 0x1f, 0xbe, 0x4f, 0xb7, 0x66, 0x3e,
  0x03, 0xe9, 0xfd, 0xbd, 0xed, 0x0d, 0x57, 0xbe, 0x9f, 0x55, 0x46, 0xbe,
  0x56, 0xcb, 0x63, 0xbe, 0x6c, 0x01, 0x65, 0xbe, 0xfc, 0x4b, 0x86, 0xbe,
  0x75, 0x4f, 0x20, 0xbd, 0x6f, 0x0a, 0x69, 0x3e, 0xe7, 0x97, 0xab, 0x3d,
  0x87, 0xa9, 0x61, 0xbe, 0x83, 0x2e, 0x2c, 0x3d, 0xe8, 0x9d, 0xf0, 0x3c,
  0xa2, 0x60, 0x22, 0x3e, 0x50, 0x81, 0x8a, 0xbb, 0xd9, 0x5c, 0x69, 0xbe,
  0xb5, 0x73, 0x06, 0xbc, 0x04, 0x83, 0x1c, 0xbe, 0xe9, 0x6a, 0x50, 0xbc,
  0x7a, 0x95, 0x42, 0xbd, 0x31, 0x17, 0x44, 0x3e, 0x6e, 0x47, 0x2a, 0xbe,
  0x19, 0x0e, 0xbb, 0xbd, 0xc3, 0xc8, 0x3a, 0xbe, 0xff, 0x2a, 0x59, 0x3e,
  0x0f, 0x2d, 0x6c, 0x3e, 0x0e, 0x47, 0x31, 0xbe, 0x9b, 0xa5, 0x3c, 0x3e,
  0xfd, 0x81, 0xef, 0xbd, 0x20, 0x1d, 0x5d, 0xbe, 0x7a, 0x89, 0x46, 0xbe,
  0x68, 0x5e, 0x46, 0x3e, 0x80, 0x56, 0xbe, 0xbd, 0x78, 0x48, 0x02, 0x3e,
  0xec, 0x7c, 0x75, 0x3d, 0x2b, 0x66, 0x4c, 0x3e, 0xf0, 0xb5, 0xce, 0xbc,
  0xcc, 0xc5, 0x8f, 0xbd, 0x85, 0x46, 0xe8, 0x3d, 0xe7, 0x3a, 0x82, 0xbe,
  0xa1, 0x75, 0xfa, 0x3d, 0xe0, 0xd7, 0x11, 0xbe, 0x2a, 0xd7, 0xff, 0xff,
  0x10, 0x00, 0x00, 0x00, 0x24, 0x00, 0x00, 0x00, 0x14, 0x00, 0x00, 0x00,
  0x30, 0x00, 0x00, 0x00, 0x02, 0x00, 0x00, 0x00, 0x01, 0x00, 0x00, 0x00,
  0x0f, 0x00, 0x00, 0x00, 0x19, 0x00, 0x00, 0x00, 0x73, 0x65, 0x71, 0x75,
  0x65, 0x6e, 0x74, 0x69, 0x61, 0x6c, 0x5f, 0x31, 0x2f, 0x64, 0x65, 0x6e,
  0x73, 0x65, 0x5f, 0x32, 0x2f, 0x52, 0x65, 0x6c, 0x75, 0x00, 0x00, 0x00,
  0x60, 0xd6, 0xff, 0xff, 0x6e, 0xd7, 0xff, 0xff, 0x10, 0x00, 0x00, 0x00,
  0x23, 0x00, 0x00, 0x00, 0x14, 0x00, 0x00, 0x00, 0x2c, 0x00, 0x00, 0x00,
  0x02, 0x00, 0x00, 0x00, 0x01, 0x00, 0x00, 0x00, 0x29, 0x00, 0x00, 0x00,
  0x0d, 0x00, 0x00, 0x00, 0x64, 0x65, 0x6e, 0x73, 0x65, 0x5f, 0x31, 0x5f,
  0x69, 0x6e, 0x70, 0x75, 0x74, 0x00, 0x00, 0x00, 0x08, 0x00, 0x0c, 0x00,
  0x04, 0x00, 0x08, 0x00, 0x08, 0x00, 0x00, 0x00, 0x10, 0x00, 0x00, 0x00,
  0x04, 0x00, 0x00, 0x00, 0x01, 0x00, 0x00, 0x00, 0x00, 0x00, 0x7f, 0x43,
  0x01, 0x00, 0x00, 0x00, 0x00, 0x00, 0x00, 0x00, 0xc6, 0xd7, 0xff, 0xff,
  0x10, 0x00, 0x00, 0x00, 0x22, 0x00, 0x00, 0x00, 0x14, 0x00, 0x00, 0x00,
  0x30, 0x00, 0x00, 0x00, 0x02, 0x00, 0x00, 0x00, 0x01, 0x00, 0x00, 0x00,
  0x05, 0x00, 0x00, 0x00, 0x1a, 0x00, 0x00, 0x00, 0x73, 0x65, 0x71, 0x75,
  0x65, 0x6e, 0x74, 0x69, 0x61, 0x6c, 0x5f, 0x31, 0x2f, 0x64, 0x65, 0x6e,
  0x73, 0x65, 0x5f, 0x31, 0x32, 0x2f, 0x52, 0x65, 0x6c, 0x75, 0x00, 0x00,
  0xfc, 0xd6, 0xff, 0xff, 0x0a, 0xd8, 0xff, 0xff, 0x10, 0x00, 0x00, 0x00,
  0x21, 0x00, 0x00, 0x00, 0x14, 0x00, 0x00, 0x00, 0x30, 0x00, 0x00, 0x00,
  0x02, 0x00, 0x00, 0x00, 0x01, 0x00, 0x00, 0x00, 0x0a, 0x00, 0x00, 0x00,
  0x19, 0x00, 0x00, 0x00, 0x73, 0x65, 0x71, 0x75, 0x65, 0x6e, 0x74, 0x69,
  0x61, 0x6c, 0x5f, 0x31, 0x2f, 0x64, 0x65, 0x6e, 0x73, 0x65, 0x5f, 0x33,
  0x2f, 0x52, 0x65, 0x6c, 0x75, 0x00, 0x00, 0x00, 0x40, 0xd7, 0xff, 0xff,
  0x4e, 0xd8, 0xff, 0xff, 0x10, 0x00, 0x00, 0x00, 0x20, 0x00, 0x00, 0x00,
  0x14, 0x00, 0x00, 0x00, 0x30, 0x00, 0x00, 0x00, 0x02, 0x00, 0x00, 0x00,
  0x01, 0x00, 0x00, 0x00, 0x0a, 0x00, 0x00, 0x00, 0x19, 0x00, 0x00, 0x00,
  0x73, 0x65, 0x71, 0x75, 0x65, 0x6e, 0x74, 0x69, 0x61, 0x6c, 0x5f, 0x31,
  0x2f, 0x64, 0x65, 0x6e, 0x73, 0x65, 0x5f, 0x38, 0x2f, 0x52, 0x65, 0x6c,
  0x75, 0x00, 0x00, 0x00, 0x84, 0xd7, 0xff, 0xff, 0x92, 0xd8, 0xff, 0xff,
  0x10, 0x00, 0x00, 0x00, 0x1f, 0x00, 0x00, 0x00, 0x14, 0x00, 0x00, 0x00,
  0x30, 0x00, 0x00, 0x00, 0x02, 0x00, 0x00, 0x00, 0x01, 0x00, 0x00, 0x00,
  0x05, 0x00, 0x00, 0x00, 0x1a, 0x00, 0x00, 0x00, 0x73, 0x65, 0x71, 0x75,
  0x65, 0x6e, 0x74, 0x69, 0x61, 0x6c, 0x5f, 0x31, 0x2f, 0x64, 0x65, 0x6e,
  0x73, 0x65, 0x5f, 0x31, 0x30, 0x2f, 0x52, 0x65, 0x6c, 0x75, 0x00, 0x00,
  0xc8, 0xd7, 0xff, 0xff, 0xd6, 0xd8, 0xff, 0xff, 0x10, 0x00, 0x00, 0x00,
  0x1e, 0x00, 0x00, 0x00, 0x10, 0x00, 0x00, 0x00, 0x34, 0x00, 0x00, 0x00,
  0x01, 0x00, 0x00, 0x00, 0x0f, 0x00, 0x00, 0x00, 0x20, 0x00, 0x00, 0x00,
  0x73, 0x65, 0x71, 0x75, 0x65, 0x6e, 0x74, 0x69, 0x61, 0x6c, 0x5f, 0x31,
  0x2f, 0x64, 0x65, 0x6e, 0x73, 0x65, 0x5f, 0x32, 0x2f, 0x4d, 0x61, 0x74,
  0x4d, 0x75, 0x6c, 0x5f, 0x62, 0x69, 0x61, 0x73, 0x00, 0x00, 0x00, 0x00,
  0x10, 0xd8, 0xff, 0xff, 0x3c, 0x00, 0x00, 0x00, 0x65, 0x41, 0xd9, 0x3c,
  0x20, 0x9d, 0x28, 0x3d, 0x6e, 0xad, 0x12, 0x3c, 0x04, 0xf8, 0x45, 0xb9,
  0x8f, 0x5c, 0x76, 0x3c, 0x4a, 0x82, 0xe0, 0xbb, 0x82, 0x61, 0xa5, 0x3b,
  0x58, 0x80, 0xda, 0x3c, 0x94, 0x4f, 0x28, 0x3c, 0x5f, 0x83, 0xb6, 0xbd,
  0xab, 0xa7, 0x8c, 0x3b, 0xb6, 0xea, 0xe5, 0x3a, 0x4d, 0xc2, 0xfe, 0x3a,
  0xc0, 0x25, 0x07, 0x3c, 0xb6, 0xd4, 0x20, 0xbe, 0x5e, 0xd9, 0xff, 0xff,
  0x10, 0x00, 0x00, 0x00, 0x1d, 0x00, 0x00, 0x00, 0x10, 0x00, 0x00, 0x00,
  0x34, 0x00, 0x00, 0x00, 0x01, 0x00, 0x00, 0x00, 0x0a, 0x00, 0x00, 0x00,
  0x20, 0x00, 0x00, 0x00, 0x73, 0x65, 0x71, 0x75, 0x65, 0x6e, 0x74, 0x69,
  0x61, 0x6c, 0x5f, 0x31, 0x2f, 0x64, 0x65, 0x6e, 0x73, 0x65, 0x5f, 0x34,
  0x2f, 0x4d, 0x61, 0x74, 0x4d, 0x75, 0x6c, 0x5f, 0x62, 0x69, 0x61, 0x73,
  0x00, 0x00, 0x00, 0x00, 0x98, 0xd8, 0xff, 0xff, 0x28, 0x00, 0x00, 0x00,
  0x19, 0xad, 0x91, 0x3b, 0x44, 0xd5, 0x32, 0xbd, 0xd4, 0xe9, 0xd0, 0xbd,
  0xaf, 0x9b, 0x6c, 0xbc, 0xc9, 0x80, 0x85, 0xbd, 0x8e, 0x58, 0x85, 0x3b,
  0x9f, 0xb6, 0xed, 0xbd, 0xb7, 0x40, 0x40, 0x3d, 0x4a, 0x05, 0x56, 0x3d,
  0x41, 0xd6, 0x2e, 0x3d, 0xd2, 0xd9, 0xff, 0xff, 0x10, 0x00, 0x00, 0x00,
  0x1c, 0x00, 0x00, 0x00, 0x10, 0x00, 0x00, 0x00, 0x34, 0x00, 0x00, 0x00,
  0x01, 0x00, 0x00, 0x00, 0x0a, 0x00, 0x00, 0x00, 0x20, 0x00, 0x00, 0x00,
  0x73, 0x65, 0x71, 0x75, 0x65, 0x6e, 0x74, 0x69, 0x61, 0x6c, 0x5f, 0x31,
  0x2f, 0x64, 0x65, 0x6e, 0x73, 0x65, 0x5f, 0x35, 0x2f, 0x4d, 0x61, 0x74,
  0x4d, 0x75, 0x6c, 0x5f, 0x62, 0x69, 0x61, 0x73, 0x00, 0x00, 0x00, 0x00,
  0x0c, 0xd9, 0xff, 0xff, 0x28, 0x00, 0x00, 0x00, 0x83, 0x8b, 0x1e, 0x3d,
  0x83, 0xfe, 0x68, 0x3d, 0xd2, 0x22, 0x43, 0xbe, 0xf2, 0xa7, 0xad, 0xbb,
  0x1e, 0x25, 0x9d, 0x3c, 0x97, 0x29, 0xc4, 0xbb, 0x3e, 0x4c, 0x22, 0xbc,
  0xed, 0x5d, 0x82, 0x3c, 0x89, 0xcc, 0xe3, 0xbc, 0x4b, 0x92, 0x78, 0xbd,
  0x46, 0xda, 0xff, 0xff, 0x10, 0x00, 0x00, 0x00, 0x1b, 0x00, 0x00, 0x00,
  0x14, 0x00, 0x00, 0x00, 0x30, 0x00, 0x00, 0x00, 0x02, 0x00, 0x00, 0x00,
  0x01, 0x00, 0x00, 0x00, 0x0a, 0x00, 0x00, 0x00, 0x19, 0x00, 0x00, 0x00,
  0x73, 0x65, 0x71, 0x75, 0x65, 0x6e, 0x74, 0x69, 0x61, 0x6c, 0x5f, 0x31,
  0x2f, 0x64, 0x65, 0x6e, 0x73, 0x65, 0x5f, 0x34, 0x2f, 0x52, 0x65, 0x6c,
  0x75, 0x00, 0x00, 0x00, 0x7c, 0xd9, 0xff, 0xff, 0x8a, 0xda, 0xff, 0xff,
  0x10, 0x00, 0x00, 0x00, 0x1a, 0x00, 0x00, 0x00, 0x14, 0x00, 0x00, 0x00,
  0x34, 0x00, 0x00, 0x00, 0x02, 0x00, 0x00, 0x00, 0x01, 0x00, 0x00, 0x00,
  0x01, 0x00, 0x00, 0x00, 0x1d, 0x00, 0x00, 0x00, 0x73, 0x65, 0x71, 0x75,
  0x65, 0x6e, 0x74, 0x69, 0x61, 0x6c, 0x5f, 0x31, 0x2f, 0x64, 0x65, 0x6e,
  0x73, 0x65, 0x5f, 0x31, 0x33, 0x2f, 0x42, 0x69, 0x61, 0x73, 0x41, 0x64,
  0x64, 0x00, 0x00, 0x00, 0xc4, 0xd9, 0xff, 0xff, 0xd2, 0xda, 0xff, 0xff,
  0x10, 0x00, 0x00, 0x00, 0x19, 0x00, 0x00, 0x00, 0x10, 0x00, 0x00, 0x00,
  0x34, 0x00, 0x00, 0x00, 0x01, 0x00, 0x00, 0x00, 0x0a, 0x00, 0x00, 0x00,
  0x20, 0x00, 0x00, 0x00, 0x73, 0x65, 0x71, 0x75, 0x65, 0x6e, 0x74, 0x69,
  0x61, 0x6c, 0x5f, 0x31, 0x2f, 0x64, 0x65, 0x6e, 0x73, 0x65, 0x5f, 0x33,
  0x2f, 0x4d, 0x61, 0x74, 0x4d, 0x75, 0x6c, 0x5f, 0x62, 0x69, 0x61, 0x73,
  0x00, 0x00, 0x00, 0x00, 0x0c, 0xda, 0xff, 0xff, 0x28, 0x00, 0x00, 0x00,
  0xfa, 0xf4, 0xfc, 0xbd, 0x06, 0x1d, 0xe1, 0x3c, 0x2a, 0x6f, 0x3b, 0x3b,
  0xad, 0xb7, 0x8e, 0x3b, 0x1e, 0xf9, 0xe4, 0xba, 0x51, 0x1d, 0xc2, 0xbb,
  0x1c, 0x14, 0x92, 0xbd, 0xf1, 0x1c, 0x47, 0x3c, 0x0b, 0xca, 0x14, 0x3c,
  0x30, 0xa7, 0xc4, 0xb9, 0x46, 0xdb, 0xff, 0xff, 0x10, 0x00, 0x00, 0x00,
  0x18, 0x00, 0x00, 0x00, 0x14, 0x00, 0x00, 0x00, 0x30, 0x00, 0x00, 0x00,
  0x02, 0x00, 0x00, 0x00, 0x01, 0x00, 0x00, 0x00, 0x0a, 0x00, 0x00, 0x00,
  0x19, 0x00, 0x00, 0x00, 0x73, 0x65, 0x71, 0x75, 0x65, 0x6e, 0x74, 0x69,
  0x61, 0x6c, 0x5f, 0x31, 0x2f, 0x64, 0x65, 0x6e, 0x73, 0x65, 0x5f, 0x35,
  0x2f, 0x52, 0x65, 0x6c, 0x75, 0x00, 0x00, 0x00, 0x7c, 0xda, 0xff, 0xff,
  0x8a, 0xdb, 0xff, 0xff, 0x10, 0x00, 0x00, 0x00, 0x17, 0x00, 0x00, 0x00,
  0x10, 0x00, 0x00, 0x00, 0x34, 0x00, 0x00, 0x00, 0x01, 0x00, 0x00, 0x00,
  0x0a, 0x00, 0x00, 0x00, 0x20, 0x00, 0x00, 0x00, 0x73, 0x65, 0x71, 0x75,
  0x65, 0x6e, 0x74, 0x69, 0x61, 0x6c, 0x5f, 0x31, 0x2f, 0x64, 0x65, 0x6e,
  0x73, 0x65, 0x5f, 0x36, 0x2f, 0x4d, 0x61, 0x74, 0x4d, 0x75, 0x6c, 0x5f,
  0x62, 0x69, 0x61, 0x73, 0x00, 0x00, 0x00, 0x00, 0xc4, 0xda, 0xff, 0xff,
  0x28, 0x00, 0x00, 0x00, 0x2c, 0x59, 0x09, 0xbe, 0x1f, 0x54, 0xc8, 0xbd,
  0x14, 0x8e, 0x4a, 0x3d, 0x67, 0x0c, 0x9a, 0x3c, 0x54, 0x4a, 0xc7, 0xbc,
  0xe9, 0x20, 0x9e, 0xbd, 0xac, 0xcc, 0x1a, 0xbc, 0xee, 0x2c, 0x4e, 0x3d,
  0xe5, 0x09, 0x80, 0xbd, 0x55, 0xa0, 0x8a, 0x3b, 0xfe, 0xdb, 0xff, 0xff,
  0x10, 0x00, 0x00, 0x00, 0x16, 0x00, 0x00, 0x00, 0x14, 0x00, 0x00, 0x00,
  0x30, 0x00, 0x00, 0x00, 0x02, 0x00, 0x00, 0x00, 0x01, 0x00, 0x00, 0x00,
  0x0a, 0x00, 0x00, 0x00, 0x19, 0x00, 0x00, 0x00, 0x73, 0x65, 0x71, 0x75,
  0x65, 0x6e, 0x74, 0x69, 0x61, 0x6c, 0x5f, 0x31, 0x2f, 0x64, 0x65, 0x6e,
  0x73, 0x65, 0x5f, 0x36, 0x2f, 0x52, 0x65, 0x6c, 0x75, 0x00, 0x00, 0x00,
  0x34, 0xdb, 0xff, 0xff, 0x42, 0xdc, 0xff, 0xff, 0x10, 0x00, 0x00, 0x00,
  0x15, 0x00, 0x00, 0x00, 0x10, 0x00, 0x00, 0x00, 0x34, 0x00, 0x00, 0x00,
  0x01, 0x00, 0x00, 0x00, 0x14, 0x00, 0x00, 0x00, 0x20, 0x00, 0x00, 0x00,
  0x73, 0x65, 0x71, 0x75, 0x65, 0x6e, 0x74, 0x69, 0x61, 0x6c, 0x5f, 0x31,
  0x2f, 0x64, 0x65, 0x6e, 0x73, 0x65, 0x5f, 0x31, 0x2f, 0x4d, 0x61, 0x74,
  0x4d, 0x75, 0x6c, 0x5f, 0x62, 0x69, 0x61, 0x73, 0x00, 0x00, 0x00, 0x00,
  0x7c, 0xdb, 0xff, 0xff, 0x50, 0x00, 0x00, 0x00, 0x37, 0x68, 0x0f, 0x38,
  0x1c, 0xfd, 0x2a, 0x3d, 0x4d, 0x4a, 0x6c, 0xbd, 0x5c, 0x30, 0xcc, 0x3c,
  0x4a, 0xa8, 0x9f, 0xb9, 0xf1, 0xea, 0x98, 0xbb, 0xb0, 0x95, 0xac, 0x3a,
  0x69, 0x6e, 0xaf, 0xba, 0x46, 0xf6, 0x0d, 0x3c, 0x66, 0x79, 0xf6, 0xba,
  0xb5, 0x67, 0x0b, 0xbd, 0xaa, 0x1c, 0xf2, 0xbd, 0x49, 0x44, 0x94, 0x3b,
  0xb9, 0xc9, 0x3d, 0x3d, 0xd6, 0x0c, 0x0c, 0x3d, 0xf8, 0xe1, 0x22, 0xbe,
  0xa0, 0x36, 0x87, 0x3c, 0x60, 0xe8, 0xb0, 0xba, 0x00, 0x00, 0x00, 0x00,
  0x81, 0x7f, 0x07, 0x3a, 0xde, 0xdc, 0xff, 0xff, 0x10, 0x00, 0x00, 0x00,
  0x14, 0x00, 0x00, 0x00, 0x14, 0x00, 0x00, 0x00, 0x30, 0x00, 0x00, 0x00,
  0x02, 0x00, 0x00, 0x00, 0x01, 0x00, 0x00, 0x00, 0x05, 0x00, 0x00, 0x00,
  0x19, 0x00, 0x00, 0x00, 0x73, 0x65, 0x71, 0x75, 0x65, 0x6e, 0x74, 0x69,
  0x61, 0x6c, 0x5f, 0x31, 0x2f, 0x64, 0x65, 0x6e, 0x73, 0x65, 0x5f, 0x39,
  0x2f, 0x52, 0x65, 0x6c, 0x75, 0x00, 0x00, 0x00, 0x14, 0xdc, 0xff, 0xff,
  0x22, 0xdd, 0xff, 0xff, 0x10, 0x00, 0x00, 0x00, 0x13, 0x00, 0x00, 0x00,
  0x14, 0x00, 0x00, 0x00, 0x30, 0x00, 0x00, 0x00, 0x02, 0x00, 0x00, 0x00,
  0x01, 0x00, 0x00, 0x00, 0x05, 0x00, 0x00, 0x00, 0x1a, 0x00, 0x00, 0x00,
  0x73, 0x65, 0x71, 0x75, 0x65, 0x6e, 0x74, 0x69, 0x61, 0x6c, 0x5f, 0x31,
  0x2f, 0x64, 0x65, 0x6e, 0x73, 0x65, 0x5f, 0x31, 0x31, 0x2f, 0x52, 0x65,
  0x6c, 0x75, 0x00, 0x00, 0x58, 0xdc, 0xff, 0xff, 0x66, 0xdd, 0xff, 0xff,
  0x10, 0x00, 0x00, 0x00, 0x12, 0x00, 0x00, 0x00, 0x10, 0x00, 0x00, 0x00,
  0x34, 0x00, 0x00, 0x00, 0x01, 0x00, 0x00, 0x00, 0x05, 0x00, 0x00, 0x00,
  0x20, 0x00, 0x00, 0x00, 0x73, 0x65, 0x71, 0x75, 0x65, 0x6e, 0x74, 0x69,
  0x61, 0x6c, 0x5f, 0x31, 0x2f, 0x64, 0x65, 0x6e, 0x73, 0x65, 0x5f, 0x39,
  0x2f, 0x4d, 0x61, 0x74, 0x4d, 0x75, 0x6c, 0x5f, 0x62, 0x69, 0x61, 0x73,
  0x00, 0x00, 0x00, 0x00, 0xa0, 0xdc, 0xff, 0xff, 0x14, 0x00, 0x00, 0x00,
  0xae, 0x26, 0x25, 0x3e, 0x98, 0xe1, 0xda, 0xbd, 0x7b, 0x3e, 0x97, 0xbe,
  0x26, 0xbd, 0x0c, 0xbe, 0x77, 0x2b, 0x83, 0x3e, 0xc6, 0xdd, 0xff, 0xff,
  0x10, 0x00, 0x00, 0x00, 0x11, 0x00, 0x00, 0x00, 0x14, 0x00, 0x00, 0x00,
  0x20, 0x00, 0x00, 0x00, 0x02, 0x00, 0x00, 0x00, 0x01, 0x00, 0x00, 0x00,
  0x01, 0x00, 0x00, 0x00, 0x08, 0x00, 0x00, 0x00, 0x49, 0x64, 0x65, 0x6e,
  0x74, 0x69, 0x74, 0x79, 0x00, 0x00, 0x00, 0x00, 0xec, 0xdc, 0xff, 0xff,
  0xfa, 0xdd, 0xff, 0xff, 0x10, 0x00, 0x00, 0x00, 0x10, 0x00, 0x00, 0x00,
  0x14, 0x00, 0x00, 0x00, 0x4c, 0x00, 0x00, 0x00, 0x02, 0x00, 0x00, 0x00,
  0x14, 0x00, 0x00, 0x00, 0x29, 0x00, 0x00, 0x00, 0x34, 0x00, 0x00, 0x00,
  0x73, 0x65, 0x71, 0x75, 0x65, 0x6e, 0x74, 0x69, 0x61, 0x6c, 0x5f, 0x31,
  0x2f, 0x64, 0x65, 0x6e, 0x73, 0x65, 0x5f, 0x31, 0x2f, 0x4d, 0x61, 0x74,
  0x4d, 0x75, 0x6c, 0x2f, 0x52, 0x65, 0x61, 0x64, 0x56, 0x61, 0x72, 0x69,
  0x61, 0x62, 0x6c, 0x65, 0x4f, 0x70, 0x2f, 0x74, 0x72, 0x61, 0x6e, 0x73,
  0x70, 0x6f, 0x73, 0x65, 0x00, 0x00, 0x00, 0x00, 0x4c, 0xdd, 0xff, 0xff,
  0xd0, 0x0c, 0x00, 0x00, 0xc3, 0x03, 0x9f, 0xbe, 0x3f, 0x6d, 0x30, 0xbe,
  0xf7, 0x62, 0x2e, 0xbe, 0x4f, 0xce, 0x01, 0x3d, 0x10, 0x41, 0xa7, 0xbd,
  0x59, 0x49, 0x22, 0x3d, 0x28, 0xf3, 0xff, 0x3d, 0xde, 0xf3, 0x18, 0x3b,
  0x7b, 0x31, 0x49, 0x3e, 0x7c, 0x43, 0x87, 0xbe, 0x5c, 0x64, 0xba, 0x3d,
  0x42, 0x54, 0x9f, 0x3e, 0x1a, 0x0a, 0x2b, 0x3e, 0x41, 0x20, 0x87, 0xbe,
  0x33, 0x93, 0x8b, 0x3e, 0xa3, 0x4c, 0x6b, 0xbe, 0x6e, 0x0b, 0x9d, 0xbd,
  0xf6, 0x68, 0xb0, 0x3d, 0xce, 0xb3, 0x4b, 0xbe, 0x77, 0x6a, 0x64, 0xbc,
  0x88, 0xeb, 0x3b, 0x3d, 0x11, 0x78, 0x42, 0xbe, 0x8b, 0x5b, 0x89, 0x3e,
  0x92, 0xb6, 0x01, 0x3d, 0x88, 0x1e, 0x57, 0x3d, 0x54, 0x2b, 0xc3, 0xbd,
  0x70, 0x9b, 0x84, 0xbe, 0x59, 0xef, 0x82, 0xbe, 0x48, 0x77, 0x65, 0xbd,
  0xa2, 0x78, 0xdf, 0x3d, 0x36, 0x00, 0x05, 0xbe, 0x07, 0xe0, 0x5d, 0x3e,
  0x45, 0x67, 0x43, 0xbe, 0x26, 0xea, 0x4b, 0x3e, 0xf2, 0x5b, 0x22, 0x3e,
  0xcf, 0x67, 0x3f, 0x3e, 0xd1, 0x3b, 0x2d, 0xbc, 0xe2, 0x2a, 0x8a, 0x3e,
  0x7a, 0x38, 0x95, 0x3e, 0x4e, 0x67, 0x12, 0x3d, 0xa3, 0x47, 0x80, 0x3e,
  0x61, 0xc4, 0x1d, 0xbe, 0xf6, 0x8b, 0x6a, 0x3e, 0xcb, 0x87, 0x80, 0x3e,
  0xfd, 0xa4, 0xfc, 0x3d, 0x74, 0xbb, 0x8f, 0xbe, 0x8e, 0x3a, 0xac, 0x3d,
  0xcc, 0x8c, 0x2e, 0x3f, 0x2e, 0xf9, 0xba, 0xbf, 0xa5, 0x2b, 0x26, 0x3f,
  0xf0, 0x40, 0x86, 0x3e, 0x3c, 0x20, 0x4b, 0x3f, 0x83, 0x96, 0xe8, 0xbe,
  0xd6, 0x48, 0x3a, 0x3e, 0x31, 0xa2, 0x30, 0xbf, 0x9c, 0xa6, 0x49, 0xbb,
  0xa7, 0xad, 0x21, 0x3e, 0x69, 0xd8, 0x01, 0x3f, 0x1e, 0xf2, 0xe7, 0xbe,
  0x1f, 0x59, 0xe9, 0x3c, 0xc4, 0x93, 0xe9, 0xbe, 0x33, 0xf2, 0x25, 0xbe,
  0xc9, 0x4b, 0x1f, 0x3d, 0xf3, 0x57, 0x29, 0x3d, 0xf6, 0xaf, 0x91, 0x3d,
  0x04, 0xbc, 0x81, 0x3d, 0x5b, 0x30, 0x24, 0xbe, 0x3c, 0xf4, 0x86, 0xbe,
  0xbf, 0xb9, 0x19, 0x3f, 0x0a, 0x5f, 0x0a, 0xbf, 0xbd, 0xc2, 0xb8, 0x3d,
  0x56, 0x6e, 0xe1, 0xbe, 0x5c, 0xd5, 0x70, 0xbc, 0x24, 0xdd, 0x32, 0xbc,
  0x98, 0xa1, 0xc6, 0xbe, 0xfa, 0xa8, 0xbd, 0xbd, 0x57, 0x3e, 0x5d, 0xbe,
  0xa2, 0x69, 0x81, 0x3e, 0xd6, 0xf0, 0x16, 0x3e, 0x54, 0xf8, 0x45, 0x3f,
  0xa9, 0x55, 0x44, 0xbc, 0x0f, 0x36, 0x5f, 0x3e, 0x00, 0x3e, 0x46, 0x3d,
  0x0e, 0x9f, 0x09, 0xbe, 0x67, 0x9f, 0x58, 0x3e, 0x1e, 0x60, 0x69, 0x3d,
  0x5b, 0x00, 0x36, 0x3e, 0x84, 0x8e, 0xd2, 0xbf, 0x84, 0x3a, 0xb9, 0xbf,
  0xb1, 0xd8, 0x09, 0x40, 0x21, 0x98, 0xda, 0xbf, 0x76, 0xbe, 0x11, 0xbb,
  0x21, 0x20, 0x50, 0xbe, 0xed, 0xb8, 0x51, 0x3f, 0xa0, 0x84, 0x82, 0x3e,
  0x01, 0x5b, 0x80, 0xbc, 0x67, 0x00, 0xe5, 0x3d, 0x39, 0xe6, 0x55, 0xbe,
  0xea, 0xa5, 0xcb, 0x39, 0xc4, 0xab, 0x1a, 0xbe, 0x00, 0xdf, 0xbb, 0xbd,
  0x31, 0x55, 0x8d, 0xbc, 0x39, 0x72, 0x60, 0xbe, 0xb1, 0x41, 0x87, 0x3e,
  0xa5, 0x6f, 0x8f, 0x3d, 0x2f, 0xf4, 0x19, 0xbe, 0xed, 0x31, 0x2b, 0x3e,
  0x67, 0x7f, 0x1b, 0xbe, 0x17, 0xa9, 0xe8, 0xbd, 0x5e, 0x68, 0x19, 0xbf,
  0x9d, 0x66, 0x7b, 0x3f, 0xf2, 0xb1, 0x11, 0x3f, 0x59, 0x89, 0x67, 0x3e,
  0x89, 0x0f, 0xc8, 0xbd, 0xe7, 0x3d, 0x19, 0xbd, 0x8c, 0xff, 0x17, 0x3e,
  0x4e, 0xf5, 0x1d, 0x3b, 0x6d, 0x4a, 0x6f, 0x3e, 0xe2, 0xc7, 0x6f, 0xbe,
  0x04, 0xd8, 0xfc, 0x3d, 0xe5, 0xd5, 0x89, 0xbf, 0x05, 0xea, 0x3c, 0xbe,
  0x80, 0xaa, 0xdd, 0x3c, 0x9e, 0xe8, 0x66, 0x3e, 0xa2, 0x2f, 0x5b, 0x3d,
  0x9c, 0x71, 0x71, 0x3e, 0x7a, 0x2d, 0x18, 0xbb, 0x82, 0xce, 0x9e, 0x3d,
  0xcb, 0xe9, 0xdc, 0x3d, 0x77, 0xc8, 0xb3, 0x3e, 0x4d, 0x2e, 0x17, 0xbf,
  0x67, 0x15, 0xf1, 0x3c, 0x46, 0xc5, 0x6d, 0x3d, 0x25, 0x26, 0x9a, 0x3f,
  0x5b, 0x0e, 0xc4, 0x3e, 0x22, 0x2f, 0x6d, 0x3f, 0x3f, 0xf2, 0x8c, 0xbe,
  0xb3, 0xeb, 0x36, 0xbe, 0x3e, 0x7c, 0x28, 0x3e, 0x9e, 0xd7, 0x32, 0x3f,
  0xaa, 0xc4, 0x00, 0x3e, 0x29, 0x2b, 0xf4, 0x3e, 0x0c, 0x32, 0x81, 0x3e,
  0xb5, 0xb8, 0xa8, 0x3e, 0x78, 0x23, 0x6e, 0x3e, 0x65, 0x26, 0x3e, 0x3d,
  0x25, 0x5f, 0x88, 0x3e, 0xc0, 0xb5, 0x37, 0xbe, 0x20, 0x0a, 0xbc, 0x3d,
  0xd7, 0xd0, 0x75, 0x3e, 0xa9, 0x60, 0x75, 0x3c, 0xa8, 0xd8, 0xc6, 0xbd,
  0x9e, 0xa2, 0xe5, 0xbc, 0xd5, 0xf5, 0x0d, 0xbf, 0x36, 0x9e, 0x35, 0xbe,
  0xfb, 0xaf, 0xce, 0x3d, 0x1c, 0x5e, 0xc1, 0xbe, 0x1e, 0x4d, 0x2f, 0xbd,
  0xde, 0xc6, 0x50, 0xbe, 0x3c, 0x8e, 0x96, 0x3b, 0xdd, 0xdd, 0xe1, 0x3d,
  0xfb, 0x8a, 0x00, 0x3f, 0x30, 0x15, 0x88, 0xbe, 0x46, 0x29, 0x39, 0x3b,
  0xf3, 0x9a, 0x92, 0xbe, 0x42, 0x9c, 0x5e, 0xbe, 0xf0, 0x57, 0x0f, 0x3d,
  0x6d, 0x18, 0x43, 0xbe, 0x5f, 0x1b, 0x90, 0xbe, 0x58, 0x9d, 0x7a, 0x3e,
  0x33, 0xfc, 0x11, 0xbe, 0x9a, 0x8c, 0x0d, 0xbe, 0xf4, 0x63, 0x5b, 0xbe,
  0xd0, 0x93, 0x61, 0x3e, 0x7e, 0x30, 0x86, 0xbe, 0xd0, 0xa1, 0x1c, 0x3e,
  0x89, 0x6f, 0x1a, 0x3e, 0xeb, 0xe5, 0x9f, 0xbe, 0xc8, 0xb7, 0x85, 0xbe,
  0x22, 0xf0, 0x83, 0xbe, 0x8e, 0xdc, 0xc5, 0x3d, 0x02, 0x6f, 0x03, 0x3e,
  0x0a, 0xea, 0x5a, 0x3e, 0xe6, 0x31, 0x46, 0x3d, 0x7d, 0x75, 0xea, 0xbd,
  0xb3, 0x9d, 0x96, 0xbe, 0x18, 0xc3, 0x2d, 0x3e, 0x5e, 0x37, 0x94, 0x3e,
  0x19, 0x70, 0xe0, 0x3d, 0xd4, 0x68, 0x3f, 0xbe, 0x35, 0x03, 0xaa, 0xbd,
  0xff, 0xc9, 0xa0, 0x3c, 0xfa, 0xd2, 0x07, 0x3e, 0xd3, 0x5a, 0x98, 0x3d,
  0xa5, 0x3c, 0x6f, 0x3e, 0xa0, 0xa2, 0x28, 0xbd, 0x1e, 0x3a, 0x07, 0xbe,
  0x1c, 0x02, 0x17, 0x3e, 0xb0, 0x2a, 0x93, 0xbe, 0xa8, 0x36, 0x09, 0x3c,
  0x93, 0xc5, 0x62, 0x3e, 0xaf, 0xe7, 0x23, 0xbd, 0xa0, 0xa4, 0x53, 0xbe,
  0x66, 0x5d, 0x95, 0xbd, 0xe0, 0x04, 0x66, 0xbe, 0x62, 0x2e, 0x3f, 0xbe,
  0x06, 0xe9, 0xce, 0xbd, 0x6b, 0xbd, 0x20, 0x3d, 0x54, 0x30, 0x56, 0x3e,
  0x55, 0xc4, 0x74, 0x3e, 0xe7, 0x04, 0x80, 0xbe, 0x38, 0x8f, 0x6e, 0xbe,
  0x01, 0xc7, 0x91, 0x3e, 0xa1, 0x17, 0x13, 0x3e, 0x8b, 0x65, 0x04, 0xbe,
  0xd5, 0xb4, 0x1f, 0x3d, 0x6f, 0x40, 0xaf, 0xbe, 0x50, 0xd2, 0x0a, 0xbd,
  0x78, 0x23, 0x3e, 0xbd, 0x91, 0x4f, 0x47, 0x3d, 0xdd, 0x3a, 0xac, 0xbe,
  0x8f, 0x11, 0x03, 0x3e, 0x6a, 0xdc, 0x96, 0x3a, 0x34, 0x00, 0x7c, 0x3e,
  0xfa, 0x6d, 0x78, 0xbe, 0x5c, 0x65, 0xe5, 0x3d, 0xf0, 0x33, 0xa4, 0xbe,
  0x1d, 0x22, 0x81, 0xbd, 0xd8, 0x73, 0xa7, 0xbd, 0x84, 0x30, 0x19, 0x3e,
  0x8b, 0x01, 0xaa, 0xbe, 0x83, 0xe8, 0x06, 0x3d, 0x0e, 0xd3, 0xb4, 0xbd,
  0x31, 0xe7, 0xa1, 0x3e, 0x62, 0xd9, 0x46, 0xbe, 0x9e, 0x07, 0x79, 0x3e,
  0x2e, 0xb8, 0xcd, 0xbd, 0xe4, 0x04, 0xae, 0x3d, 0x2b, 0xd2, 0x5e, 0x3c,
  0x87, 0xeb, 0xec, 0xbd, 0xd5, 0x99, 0xfb, 0x3d, 0xf8, 0x8f, 0x3d, 0x3e,
  0x46, 0xfc, 0x17, 0x3e, 0x75, 0x54, 0xbe, 0xbe, 0x46, 0xa6, 0x95, 0x3e,
  0xfd, 0x39, 0x83, 0xbe, 0x98, 0x9e, 0x41, 0x3e, 0xef, 0xca, 0x36, 0x3e,
  0xbc, 0xd4, 0x80, 0xbe, 0x84, 0xb7, 0x6b, 0xbe, 0xd2, 0x44, 0x94, 0xbe,
  0x34, 0x70, 0x41, 0xbe, 0x41, 0x2d, 0xa9, 0xbb, 0xf6, 0xe0, 0x3e, 0x3e,
  0x0e, 0xdf, 0x6d, 0xbe, 0x99, 0xe0, 0x7c, 0x3d, 0xd4, 0xf0, 0x97, 0x3e,
  0x8c, 0x3f, 0x35, 0x3e, 0xa0, 0x52, 0x70, 0xbe, 0x11, 0xb0, 0x19, 0x3b,
  0x42, 0xd0, 0x5b, 0x3e, 0x22, 0xec, 0x8d, 0xbe, 0x90, 0xd7, 0x9c, 0xbe,
  0x24, 0x30, 0x47, 0xbe, 0xb0, 0xa9, 0x4c, 0x3e, 0xc0, 0x14, 0x5d, 0xbe,
  0x4a, 0x16, 0x10, 0x3e, 0xc3, 0x29, 0x41, 0x3e, 0xdc, 0x84, 0x9e, 0x3e,
  0x5c, 0x11, 0xd7, 0x3d, 0x6c, 0x5e, 0xbb, 0x3d, 0x0c, 0x65, 0xf7, 0xbd,
  0x94, 0x1b, 0x20, 0xbe, 0x3f, 0xd0, 0xfb, 0x3c, 0xfa, 0x2a, 0x2b, 0x3e,
  0x62, 0x83, 0x68, 0xbd, 0xbb, 0xa7, 0x43, 0xbe, 0xa6, 0x62, 0x41, 0xbe,
  0x6c, 0x65, 0xd7, 0xbb, 0x97, 0x01, 0xa7, 0xbe, 0x4e, 0xca, 0xa1, 0xbe,
  0xe5, 0x97, 0x8a, 0xbe, 0x68, 0xbf, 0x8b, 0x3e, 0x51, 0xfb, 0xaa, 0xbd,
  0x21, 0xd3, 0x45, 0xbe, 0x04, 0x59, 0x57, 0x3d, 0x7c, 0x1a, 0x92, 0xbe,
  0x44, 0xbc, 0x62, 0xbd, 0x2e, 0xd8, 0x5f, 0xbe, 0x61, 0x49, 0x08, 0xbd,
  0xe2, 0x5e, 0x5b, 0x3e, 0x30, 0x14, 0x3a, 0xbe, 0xcc, 0x9c, 0x54, 0x3e,
  0x6a, 0xa5, 0x01, 0xbe, 0x63, 0x09, 0x8f, 0x3e, 0x28, 0x05, 0xec, 0x3d,
  0xda, 0x72, 0x9a, 0x3d, 0x51, 0x5f, 0x9a, 0x3d, 0xb1, 0xe9, 0x21, 0xbe,
  0x4c, 0xac, 0xec, 0xbd, 0xf2, 0x2f, 0x0b, 0x3d, 0x9e, 0x8b, 0x80, 0xbe,
  0xf0, 0x45, 0x4c, 0xbe, 0x02, 0x38, 0x9b, 0xbd, 0x22, 0xfa, 0x8d, 0x3e,
  0xee, 0xa2, 0x4c, 0xbe, 0x30, 0x46, 0x52, 0xbd, 0x98, 0x06, 0x37, 0xbe,
  0x05, 0x53, 0x64, 0xbd, 0x12, 0x10, 0xd9, 0xbd, 0x04, 0x85, 0x92, 0x3d,
  0x74, 0xda, 0x42, 0x3e, 0xcb, 0xf7, 0x00, 0xbe, 0x19, 0x47, 0x85, 0xbd,
  0x56, 0xe1, 0x3e, 0x3e, 0x42, 0x80, 0x1b, 0xbd, 0xb4, 0x6e, 0xa8, 0x3d,
  0x28, 0xa3, 0x88, 0xbd, 0xba, 0x51, 0x50, 0x3e, 0xe9, 0x6a, 0xb0, 0x3d,
  0x37, 0x3b, 0x31, 0x3c, 0x5f, 0xfc, 0x99, 0x3e, 0x81, 0x93, 0xac, 0xbc,
  0x0f, 0x58, 0xa4, 0xbc, 0xdd, 0x2d, 0x17, 0xbe, 0x46, 0x14, 0x17, 0xbe,
  0x1f, 0x70, 0xc7, 0x3d, 0x22, 0xec, 0x31, 0xbe, 0xed, 0xe9, 0xaf, 0xbe,
  0xec, 0xca, 0x06, 0xbe, 0x79, 0x04, 0x88, 0xbd, 0xc2, 0xb0, 0x3e, 0xbe,
  0x58, 0x4f, 0x2f, 0xbe, 0xa6, 0xd7, 0x9d, 0xbe, 0xb8, 0x18, 0x3d, 0xbe,
  0x0c, 0x3d, 0x2a, 0x3e, 0x8e, 0xe6, 0x83, 0xbe, 0x0f, 0xdb, 0x8f, 0xbe,
  0x4f, 0x05, 0x9e, 0xbd, 0xa2, 0x7a, 0x16, 0xbe, 0xd9, 0x2b, 0x5b, 0xbe,
  0xf7, 0x0e, 0x91, 0x3e, 0xe6, 0xcc, 0x1b, 0x3e, 0xe6, 0x4b, 0x40, 0x3e,
  0x10, 0x1a, 0x9f, 0xbe, 0xf6, 0x54, 0x0a, 0x3e, 0xd2, 0x1a, 0xa4, 0xbe,
  0x31, 0x84, 0x0e, 0xbd, 0x93, 0x40, 0xd2, 0xbd, 0x7e, 0xd5, 0xfc, 0x3e,
  0x5f, 0x63, 0xa1, 0xbd, 0x33, 0x69, 0xb9, 0x3d, 0x45, 0x3b, 0x85, 0xbd,
  0x18, 0xfd, 0x27, 0xbe, 0x4f, 0xd4, 0x0e, 0x3d, 0xaa, 0x3e, 0x58, 0xbe,
  0x44, 0x9e, 0x1e, 0x3e, 0xf4, 0xed, 0x88, 0xbe, 0x94, 0x44, 0x41, 0xbe,
  0x36, 0xd7, 0x11, 0xbe, 0xf4, 0x4d, 0x10, 0x3d, 0xd7, 0xbb, 0x74, 0x3e,
  0xe3, 0xd5, 0x84, 0xbe, 0xd4, 0x7d, 0x71, 0xbe, 0x0d, 0xa6, 0x6b, 0xbe,
  0x79, 0xb1, 0xce, 0x3d, 0x2f, 0x41, 0x8b, 0x3d, 0xcb, 0xf3, 0xbe, 0x3e,
  0x4a, 0x79, 0x54, 0xbe, 0xbb, 0xa1, 0xa3, 0xbe, 0x94, 0x5d, 0x8f, 0x3d,
  0xa2, 0x76, 0x2d, 0xbe, 0x94, 0xfa, 0x3b, 0xbe, 0xc4, 0x37, 0x2d, 0xbe,
  0x0a, 0x5f, 0x47, 0x3e, 0x70, 0x8c, 0x8f, 0xbd, 0x24, 0x24, 0x72, 0x3d,
  0x56, 0x08, 0x22, 0x3e, 0x88, 0xf4, 0x80, 0x3d, 0x12, 0xc2, 0xae, 0x3c,
  0x6d, 0x65, 0x98, 0x3e, 0x77, 0x4b, 0x16, 0x3d, 0xc5, 0xc5, 0x47, 0xbd,
  0xf0, 0xa3, 0x57, 0x3e, 0x0a, 0x31, 0x8b, 0x3e, 0x30, 0x5a, 0xdd, 0xbd,
  0x79, 0x0e, 0x66, 0xbd, 0xbf, 0x13, 0xf9, 0x3b, 0x6a, 0xba, 0xca, 0x3d,
  0x12, 0x10, 0x7a, 0xbd, 0x2c, 0x94, 0x9d, 0xbe, 0x63, 0xdd, 0xf5, 0x3d,
  0x3a, 0x55, 0x1a, 0x3d, 0xaa, 0x5f, 0x83, 0x3e, 0x9e, 0x06, 0x48, 0xbd,
  0x16, 0x5d, 0x29, 0xbd, 0xbc, 0xf5, 0xae, 0x3c, 0xf6, 0xa6, 0xb2, 0xbd,
  0x3d, 0xcc, 0x9d, 0x3e, 0x66, 0x93, 0x86, 0xbd, 0x3c, 0x52, 0xbb, 0xbd,
  0xc1, 0xa3, 0xf0, 0xbd, 0xd2, 0xc2, 0x5a, 0xbe, 0x8e, 0x49, 0xb8, 0x3c,
  0x1a, 0x5c, 0x0e, 0xbd, 0x6f, 0x80, 0x5b, 0x3d, 0xce, 0x0f, 0x74, 0xbe,
  0x7e, 0xd1, 0x49, 0x3e, 0x1f, 0x4f, 0x3b, 0x3e, 0x35, 0xe2, 0xa6, 0xbe,
  0xa6, 0x38, 0x58, 0x3e, 0xf8, 0x11, 0x0f, 0xbf, 0xd6, 0x46, 0xf1, 0x3d,
  0x4d, 0x35, 0xc4, 0x3d, 0xdc, 0x61, 0x60, 0xbe, 0x26, 0xb1, 0x49, 0xbf,
  0x7d, 0xb1, 0x62, 0xbf, 0x08, 0x9f, 0x4e, 0x3f, 0xa9, 0x66, 0x3d, 0xbf,
  0xee, 0x47, 0x61, 0xbe, 0xa6, 0x30, 0x73, 0xbe, 0x79, 0x2f, 0xdb, 0x3c,
  0x7d, 0xfc, 0xbe, 0xbb, 0xf9, 0x5b, 0x53, 0x3e, 0x5a, 0x54, 0x42, 0xbe,
  0xa6, 0xf4, 0x21, 0xbe, 0x7a, 0xe8, 0xd5, 0xbd, 0xc7, 0xce, 0x98, 0xbe,
  0xa3, 0x35, 0x5d, 0xbd, 0x44, 0xf3, 0xbd, 0x3d, 0xb5, 0xe1, 0xad, 0xbe,
  0x9e, 0xfd, 0x4d, 0x3e, 0x1a, 0xce, 0x59, 0x3d, 0xc5, 0xa4, 0xc3, 0xbd,
  0xcf, 0x59, 0x07, 0xbe, 0x63, 0x97, 0x1e, 0xbc, 0x6e, 0x95, 0x10, 0xbd,
  0x29, 0xbe, 0x85, 0x3d, 0xb0, 0x47, 0x2a, 0x3f, 0x1a, 0x80, 0xd6, 0x3e,
  0x61, 0x8c, 0xf0, 0x3d, 0x2d, 0x45, 0x09, 0x3e, 0xc1, 0x44, 0x87, 0x3d,
  0xa7, 0xb3, 0x79, 0x3e, 0x24, 0x80, 0x87, 0x3d, 0xda, 0x8d, 0x2d, 0xbe,
  0x69, 0x54, 0x63, 0x3e, 0x11, 0xe9, 0xb8, 0xbd, 0x2e, 0x97, 0x7e, 0xbf,
  0x53, 0x28, 0x66, 0x3d, 0xc5, 0xae, 0xcd, 0xbd, 0xee, 0x5b, 0xfc, 0x3d,
  0x10, 0xf9, 0x4e, 0xbe, 0x91, 0xa4, 0xb5, 0xbd, 0x16, 0x57, 0x56, 0x3d,
  0x7e, 0x79, 0x68, 0xbe, 0x72, 0xc2, 0xb9, 0xbf, 0x18, 0xec, 0xfd, 0xbf,
  0xce, 0xec, 0x33, 0x40, 0xdd, 0xd0, 0xbb, 0xbf, 0xa6, 0x48, 0x52, 0x3e,
  0xb3, 0xd3, 0x5c, 0xbe, 0x62, 0x54, 0xac, 0x3e, 0xb6, 0xd5, 0xa8, 0xbe,
  0x98, 0xdf, 0x17, 0x3e, 0x16, 0x3c, 0x45, 0xbc, 0x37, 0x8d, 0xbc, 0x3d,
  0xf4, 0xf8, 0x16, 0x3e, 0xfd, 0x92, 0x89, 0xbe, 0x58, 0x52, 0xe9, 0xbc,
  0x7c, 0x5f, 0x57, 0x3e, 0xc3, 0x4c, 0xa2, 0x3d, 0x4c, 0xc4, 0x8c, 0x3d,
  0x7f, 0xa1, 0xa7, 0x3d, 0xd8, 0x60, 0x58, 0xbe, 0x2b, 0x1b, 0x80, 0xbd,
  0x3d, 0xbe, 0xd0, 0xbb, 0x5f, 0xe2, 0x8e, 0xbe, 0xcc, 0x87, 0x6d, 0xbf,
  0xd0, 0x81, 0x05, 0x40, 0xbc, 0x45, 0xdc, 0x3c, 0x19, 0x0a, 0x96, 0x3f,
  0x68, 0x99, 0x2c, 0x3e, 0x6f, 0xf0, 0x22, 0x3d, 0x9b, 0xce, 0xad, 0xbe,
  0x3e, 0xc7, 0x00, 0x3c, 0x68, 0x53, 0x0d, 0x3e, 0x65, 0xc7, 0xd5, 0xbe,
  0x10, 0x8e, 0x7a, 0xbe, 0x6c, 0x02, 0x2f, 0xc0, 0x56, 0xdc, 0x5c, 0x3e,
  0xef, 0x3d, 0xe6, 0xbd, 0xf7, 0xa5, 0xc8, 0x3d, 0xb8, 0x83, 0xe5, 0x3e,
  0xe8, 0x3b, 0x29, 0xbe, 0xaf, 0x5f, 0x95, 0xbe, 0x87, 0xbb, 0xf4, 0x3b,
  0x29, 0xee, 0x47, 0xbe, 0xf7, 0xf1, 0x16, 0xbe, 0xfc, 0x03, 0x0d, 0xbd,
  0xec, 0xa6, 0xbf, 0xbd, 0xda, 0x7b, 0xf9, 0xbd, 0xa9, 0x50, 0xf6, 0xba,
  0x45, 0xdc, 0x49, 0x3e, 0x98, 0x30, 0x6c, 0xbe, 0x5d, 0x58, 0x00, 0x3e,
  0x07, 0x5c, 0xa3, 0x3e, 0x3e, 0xe5, 0xc8, 0x3c, 0xf5, 0xd7, 0xeb, 0x3d,
  0xa9, 0x75, 0x70, 0x3c, 0x4b, 0xbf, 0xc0, 0xbd, 0x6a, 0x47, 0x37, 0x3f,
  0x44, 0x57, 0x3e, 0x3c, 0x90, 0x61, 0x8d, 0xbe, 0x06, 0xa6, 0x44, 0x3e,
  0x6f, 0xcb, 0x9c, 0xbe, 0xe1, 0x32, 0x37, 0xbd, 0x55, 0x03, 0x65, 0x3d,
  0xfd, 0xa5, 0x8d, 0x3d, 0x7d, 0x8d, 0x25, 0xbe, 0xdb, 0x08, 0x9e, 0xbe,
  0x5b, 0xe8, 0xa2, 0xbe, 0x59, 0xf4, 0x5d, 0x3e, 0xae, 0xb0, 0x2f, 0xbe,
  0x4c, 0x84, 0xd6, 0xbc, 0x7e, 0x8d, 0xa8, 0xbd, 0xc6, 0x5d, 0xa4, 0x3c,
  0xeb, 0x4e, 0x93, 0xbe, 0x0d, 0x1c, 0x02, 0x3d, 0x27, 0xf2, 0xe9, 0x3d,
  0x3e, 0xef, 0xe5, 0x3d, 0xd1, 0xfe, 0xe0, 0x3e, 0xa6, 0xe2, 0x18, 0x3e,
  0xf4, 0x7e, 0x30, 0xbe, 0xf0, 0xb5, 0x8c, 0x3d, 0x2a, 0xc3, 0x4c, 0xbd,
  0x6f, 0x2d, 0xe4, 0xbd, 0x45, 0xb0, 0x84, 0xbc, 0x80, 0xbf, 0xce, 0x3f,
  0xbd, 0x71, 0xae, 0x3f, 0xa8, 0x7b, 0xe0, 0xbf, 0x74, 0xdd, 0xb4, 0x3f,
  0x34, 0xb4, 0x57, 0xbe, 0x3e, 0x8c, 0xad, 0xbe, 0xa3, 0x97, 0xa6, 0xbf,
  0x03, 0x67, 0xe5, 0xbe, 0x6a, 0x91, 0xd1, 0x3e, 0xa0, 0x69, 0x96, 0x3e,
  0x8c, 0xf2, 0x33, 0x3e, 0x75, 0xa2, 0xfa, 0xbd, 0x0d, 0x7d, 0x12, 0xbe,
  0x27, 0xac, 0xa8, 0x3e, 0x79, 0xdb, 0x7e, 0x3d, 0x13, 0x71, 0x96, 0xbe,
  0xab, 0xf2, 0x2f, 0xbf, 0x00, 0x32, 0x03, 0x3e, 0x9a, 0xb9, 0xf6, 0xbd,
  0xb8, 0x2b, 0x17, 0x3e, 0x4d, 0x75, 0xc2, 0xbe, 0x56, 0x86, 0x27, 0x3e,
  0xda, 0x25, 0x28, 0x3f, 0x6b, 0xaa, 0x9a, 0xbf, 0xf9, 0x33, 0x48, 0xbf,
  0xe4, 0x88, 0x3e, 0xbe, 0x25, 0x7c, 0x03, 0xbe, 0x50, 0xc6, 0x2e, 0xbe,
  0x93, 0x7c, 0xc6, 0x3c, 0x5e, 0xf6, 0x91, 0x3d, 0x8e, 0x20, 0x0b, 0x3e,
  0x7e, 0x15, 0xd0, 0x3e, 0xe2, 0x4d, 0xc1, 0x3d, 0xe8, 0x9d, 0xa8, 0x3f,
  0x1d, 0xa3, 0x30, 0x3f, 0x04, 0xa0, 0x40, 0x3e, 0x32, 0x76, 0x9b, 0xbc,
  0x74, 0x40, 0xc3, 0x3d, 0x3c, 0xa0, 0xb6, 0xbe, 0xdc, 0x37, 0xa6, 0xbe,
  0x2d, 0x88, 0x4d, 0xbd, 0x72, 0x98, 0xbf, 0x3e, 0xfa, 0x57, 0x7e, 0x3c,
  0x6b, 0xce, 0xe7, 0xbe, 0x50, 0xda, 0x3c, 0x3e, 0x7f, 0xa3, 0xd2, 0xbd,
  0x4f, 0xa8, 0x27, 0xbe, 0xe6, 0x82, 0x6e, 0x3f, 0x9e, 0x64, 0x07, 0xbe,
  0x0e, 0x9a, 0x20, 0x3e, 0xaf, 0xd4, 0x89, 0xbe, 0xe7, 0xd4, 0x1e, 0x3e,
  0x88, 0xb0, 0xa8, 0xbe, 0x91, 0xe8, 0x36, 0x3d, 0xca, 0xc0, 0xf5, 0xbe,
  0xc6, 0x5b, 0x86, 0xbe, 0x72, 0x91, 0x16, 0xbe, 0xb0, 0xc8, 0xa3, 0x3f,
  0xf5, 0x36, 0x6a, 0x3e, 0xdf, 0x3d, 0x37, 0xbe, 0xc5, 0x90, 0xfb, 0xbd,
  0x33, 0xa8, 0x51, 0xbd, 0x2d, 0x24, 0x3b, 0xbd, 0xaa, 0x65, 0x56, 0xbe,
  0xc7, 0x3d, 0x73, 0xbe, 0x66, 0x80, 0xde, 0x3e, 0x4d, 0x72, 0x5e, 0xbe,
  0x2b, 0xa4, 0x89, 0xbe, 0x3f, 0x98, 0xae, 0x3d, 0x90, 0x1e, 0x6b, 0x3e,
  0x7c, 0x93, 0xee, 0x3d, 0x58, 0x75, 0x90, 0xbe, 0x36, 0x56, 0x90, 0x3e,
  0x13, 0x1f, 0xad, 0x3d, 0x3e, 0x0c, 0xa2, 0x3f, 0x08, 0x09, 0xec, 0xbe,
  0xc8, 0xe7, 0x84, 0x3e, 0xd0, 0x53, 0x85, 0x3d, 0x12, 0x57, 0xce, 0x3d,
  0xc8, 0xb4, 0x2b, 0x3e, 0x66, 0x72, 0x05, 0xbe, 0xa6, 0xaa, 0xf5, 0xbd,
  0x05, 0xc6, 0x25, 0xc0, 0x6f, 0x35, 0x05, 0xc0, 0xb9, 0xe8, 0x65, 0x40,
  0xf5, 0x3c, 0x0f, 0xc0, 0xfe, 0x79, 0x94, 0x3e, 0x80, 0x90, 0x7f, 0xbe,
  0xb7, 0xe7, 0x8a, 0x3e, 0x9c, 0x9e, 0xef, 0xbe, 0x0c, 0x4b, 0x6a, 0x3c,
  0xe1, 0x55, 0x02, 0x3e, 0xf6, 0x15, 0x63, 0x3e, 0x99, 0xd0, 0x99, 0x3d,
  0x11, 0x70, 0x30, 0xbb, 0x7c, 0x59, 0x54, 0x3f, 0xe4, 0x3b, 0xa2, 0xbd,
  0xd0, 0xea, 0x86, 0x3e, 0xfb, 0x07, 0x43, 0xbd, 0xfc, 0xf5, 0x15, 0xbe,
  0x26, 0xba, 0xa7, 0xbe, 0x56, 0x5e, 0xe7, 0x3d, 0x1a, 0x43, 0x55, 0xbe,
  0x68, 0x87, 0x0f, 0x3d, 0x42, 0x8a, 0x6a, 0xbf, 0x65, 0x52, 0x33, 0x40,
  0x47, 0xbe, 0xc5, 0xbe, 0x34, 0xad, 0xcf, 0x3f, 0xe2, 0x42, 0x39, 0xbe,
  0x7c, 0x9c, 0x0b, 0x3d, 0x7c, 0x48, 0x6c, 0x3e, 0x44, 0x8f, 0xce, 0x3e,
  0x3b, 0x79, 0x82, 0x3e, 0xfc, 0xfc, 0x99, 0xbe, 0xda, 0xd1, 0x16, 0xbd,
  0x31, 0x22, 0x71, 0xc0, 0x1e, 0xe7, 0xdc, 0x3e, 0x1e, 0x85, 0x66, 0xbd,
  0x66, 0xfd, 0xb7, 0x3d, 0x8b, 0xa0, 0x65, 0xbd, 0x08, 0x79, 0x7a, 0x3d,
  0x2e, 0xfa, 0xbb, 0xbe, 0xc9, 0x8d, 0x40, 0x3e, 0xb4, 0xda, 0x81, 0x3c,
  0x63, 0xf1, 0x96, 0x3e, 0xd7, 0x4c, 0xb5, 0xbe, 0xe7, 0xf4, 0x26, 0xbc,
  0x7d, 0x28, 0x4e, 0x3e, 0xf0, 0xa6, 0x90, 0xbf, 0xb2, 0xbe, 0xb0, 0x3e,
  0xb2, 0xf1, 0x54, 0x3d, 0x6c, 0x56, 0x80, 0xbf, 0x88, 0xe9, 0x93, 0xbe,
  0x65, 0x5e, 0x60, 0x3e, 0xd9, 0x56, 0x70, 0xbe, 0x76, 0x78, 0x70, 0xbe,
  0x6a, 0xb8, 0xb0, 0xbe, 0x45, 0xe7, 0x27, 0xbf, 0xad, 0xbf, 0x19, 0x3e,
  0xa6, 0xba, 0x93, 0x3d, 0x77, 0xcb, 0x6d, 0x3e, 0xc4, 0xc2, 0x99, 0x39,
  0x7f, 0xef, 0xce, 0xbc, 0xa1, 0xe2, 0x84, 0xbe, 0x3e, 0x96, 0xbd, 0xbe,
  0xa9, 0x0b, 0x5c, 0xbd, 0xdb, 0xf3, 0x1e, 0xbf, 0xf0, 0xa0, 0xe3, 0x3e,
  0xd2, 0x92, 0x28, 0xbf, 0x20, 0xda, 0xc5, 0x3d, 0x55, 0xeb, 0x9c, 0xbd,
  0x4d, 0xf3, 0x41, 0xbf, 0x89, 0xab, 0xc4, 0xbe, 0x93, 0xd7, 0x7d, 0xbd,
  0x2e, 0x19, 0xf6, 0xbc, 0x32, 0x52, 0xe3, 0x3c, 0x91, 0xe0, 0x76, 0x3f,
  0x90, 0x48, 0xea, 0xbc, 0xc0, 0xb9, 0x56, 0xbd, 0xdd, 0xc3, 0x96, 0xbd,
  0x33, 0x88, 0x78, 0xbe, 0x30, 0xa4, 0x14, 0x3e, 0x3b, 0xb9, 0x68, 0xbe,
  0x01, 0xab, 0x25, 0xbe, 0xab, 0xa3, 0x41, 0x3c, 0x52, 0xf4, 0x8a, 0xbe,
  0xcb, 0x3e, 0x24, 0x3e, 0x97, 0x72, 0xb2, 0x3c, 0xe7, 0x73, 0x66, 0xbd,
  0x44, 0x1a, 0x84, 0x3e, 0xf7, 0x77, 0xdf, 0xbd, 0xf9, 0xa4, 0xa0, 0x3e,
  0x2e, 0xdf, 0x9a, 0xbe, 0x45, 0x5d, 0x9e, 0xbe, 0x0c, 0x59, 0x5c, 0xbe,
  0x55, 0x8c, 0x53, 0xbe, 0x5e, 0x73, 0x84, 0xbd, 0xb1, 0x6d, 0x10, 0xbe,
  0xb3, 0xca, 0xf1, 0x3d, 0xd3, 0x03, 0x1d, 0x3c, 0x33, 0x9e, 0x65, 0xbe,
  0xa6, 0xa5, 0x6a, 0x3e, 0xcf, 0xd3, 0x81, 0xbe, 0x23, 0xb3, 0x95, 0x3e,
  0x2f, 0xc2, 0x0c, 0xbe, 0x4f, 0x19, 0x8e, 0xbe, 0xe1, 0x7f, 0x1a, 0xbe,
  0x51, 0xb4, 0x91, 0x3e, 0x99, 0x0b, 0x1c, 0x3c, 0x45, 0x73, 0x19, 0x3e,
  0xda, 0xc7, 0x57, 0xbe, 0xae, 0xe4, 0x8a, 0xbd, 0x8d, 0x23, 0x56, 0x3e,
  0x73, 0xc2, 0x67, 0xbe, 0x31, 0xa9, 0xdc, 0xbd, 0xf2, 0xff, 0x16, 0xbe,
  0xef, 0x41, 0x8f, 0x3e, 0x08, 0xbd, 0x41, 0x3d, 0x59, 0xe0, 0x80, 0xbe,
  0x8a, 0x7a, 0x50, 0x3e, 0x68, 0x89, 0x12, 0x3d, 0x27, 0xff, 0x41, 0xbe,
  0x8a, 0x69, 0x5b, 0xbe, 0x90, 0x33, 0x83, 0x3d, 0xb0, 0x04, 0x1c, 0x3d,
  0x40, 0x44, 0x46, 0x3e, 0xeb, 0x6b, 0x32, 0xbe, 0x04, 0xda, 0xdb, 0x3d,
  0x6e, 0x74, 0x0b, 0x3e, 0xb7, 0x7c, 0x3e, 0xbe, 0xc2, 0xe7, 0x92, 0x3e,
  0x42, 0x59, 0xde, 0xbd, 0x58, 0x01, 0x8c, 0x3d, 0x05, 0xcf, 0x3f, 0xbe,
  0x14, 0x82, 0x19, 0xbe, 0x38, 0xd8, 0x21, 0xbd, 0xf3, 0x9a, 0x8d, 0xbe,
  0x03, 0xcb, 0x15, 0xbe, 0x94, 0x80, 0x12, 0x3e, 0x08, 0xef, 0x8c, 0xbd,
  0xb8, 0xfa, 0x95, 0xbd, 0xa8, 0x3d, 0x16, 0xbd, 0x45, 0xb1, 0x86, 0xbe,
  0xac, 0x22, 0x26, 0xbe, 0x5c, 0x99, 0x5c, 0x3e, 0x26, 0x7b, 0x69, 0xbe,
  0x00, 0x5b, 0xce, 0xbd, 0xa0, 0x83, 0x87, 0xbe, 0x1c, 0x36, 0x0c, 0xbe,
  0x18, 0x90, 0x4a, 0xbd, 0x94, 0x67, 0x57, 0x3e, 0xc0, 0xc3, 0x46, 0xbc,
  0x38, 0x9d, 0x79, 0xbe, 0x28, 0xca, 0x24, 0x3e, 0xc4, 0x15, 0x53, 0x3e,
  0x78, 0xf0, 0xbd, 0x3d, 0xaa, 0x2b, 0x11, 0xbe, 0x0a, 0x42, 0x81, 0xbe,
  0x1c, 0xa5, 0x08, 0xbe, 0x64, 0x8e, 0xe7, 0x3d, 0xe4, 0xfe, 0x17, 0xbe,
  0xd9, 0xc9, 0x9d, 0x3c, 0x36, 0x96, 0x1d, 0x3e, 0x37, 0x1a, 0x82, 0xbe,
  0xf5, 0x7e, 0x82, 0xbe, 0xad, 0xc5, 0xec, 0xbd, 0x5e, 0x5a, 0x1b, 0x3e,
  0x97, 0x55, 0x8d, 0xbd, 0x9e, 0xb3, 0x39, 0x3e, 0x08, 0xb3, 0x1b, 0x3e,
  0xb1, 0x5d, 0x74, 0x3c, 0x76, 0xeb, 0x00, 0xbe, 0x44, 0xd5, 0xa9, 0x3d,
  0xb3, 0x88, 0x9c, 0x3d, 0x2b, 0xbd, 0x54, 0xbd, 0x02, 0x1a, 0xaf, 0x3d,
  0xd7, 0xb0, 0x93, 0xbe, 0xdc, 0xee, 0xd6, 0xbc, 0x89, 0x98, 0x5d, 0xbe,
  0x23, 0x51, 0x6d, 0x3e, 0x7d, 0x51, 0xad, 0x3e, 0x05, 0xca, 0x93, 0xbe,
  0x97, 0x4e, 0x94, 0x3e, 0x4d, 0x78, 0x27, 0x3e, 0xa9, 0xc5, 0xdb, 0xbd,
  0xcd, 0xaf, 0x75, 0xbe, 0x93, 0xf5, 0x48, 0x3e, 0xbd, 0xe4, 0xdc, 0xbd,
  0xfd, 0xd6, 0x60, 0x3d, 0x33, 0x29, 0x63, 0xbe, 0x18, 0xff, 0x4c, 0x3e,
  0x19, 0x19, 0x8c, 0xbe, 0x65, 0x0a, 0x15, 0xbe, 0x8e, 0x10, 0x91, 0x3d,
  0x88, 0xfa, 0x8e, 0x3e, 0x07, 0x92, 0x8c, 0x3c, 0x03, 0x7b, 0x82, 0xbd,
  0x05, 0x4e, 0x09, 0x3d, 0x5e, 0x9d, 0x98, 0x3e, 0x0e, 0xf4, 0x5a, 0x3e,
  0x70, 0xd7, 0x0c, 0x3e, 0x7e, 0xf6, 0x95, 0xbb, 0x2e, 0xeb, 0xff, 0xff,
  0x10, 0x00, 0x00, 0x00, 0x0f, 0x00, 0x00, 0x00, 0x10, 0x00, 0x00, 0x00,
  0x34, 0x00, 0x00, 0x00, 0x01, 0x00, 0x00, 0x00, 0x05, 0x00, 0x00, 0x00,
  0x21, 0x00, 0x00, 0x00, 0x73, 0x65, 0x71, 0x75, 0x65, 0x6e, 0x74, 0x69,
  0x61, 0x6c, 0x5f, 0x31, 0x2f, 0x64, 0x65, 0x6e, 0x73, 0x65, 0x5f, 0x31,
  0x32, 0x2f, 0x4d, 0x61, 0x74, 0x4d, 0x75, 0x6c, 0x5f, 0x62, 0x69, 0x61,
  0x73, 0x00, 0x00, 0x00, 0x68, 0xea, 0xff, 0xff, 0x14, 0x00, 0x00, 0x00,
  0xa9, 0xd3, 0x1b, 0xbe, 0xd7, 0x5a, 0x37, 0xbe, 0x27, 0xad, 0xd7, 0x3f,
  0x31, 0x16, 0xf6, 0x3e, 0x6b, 0x07, 0xc6, 0x3b, 0x8e, 0xeb, 0xff, 0xff,
  0x10, 0x00, 0x00, 0x00, 0x0e, 0x00, 0x00, 0x00, 0x14, 0x00, 0x00, 0x00,
  0x4c, 0x00, 0x00, 0x00, 0x02, 0x00, 0x00, 0x00, 0x0f, 0x00, 0x00, 0x00,
  0x14, 0x00, 0x00, 0x00, 0x34, 0x00, 0x00, 0x00, 0x73, 0x65, 0x71, 0x75,
  0x65, 0x6e, 0x74, 0x69, 0x61, 0x6c, 0x5f, 0x31, 0x2f, 0x64, 0x65, 0x6e,
  0x73, 0x65, 0x5f, 0x32, 0x2f, 0x4d, 0x61, 0x74, 0x4d, 0x75, 0x6c, 0x2f,
  0x52, 0x65, 0x61, 0x64, 0x56, 0x61, 0x72, 0x69, 0x61, 0x62, 0x6c, 0x65,
  0x4f, 0x70, 0x2f, 0x74, 0x72, 0x61, 0x6e, 0x73, 0x70, 0x6f, 0x73, 0x65,
  0x00, 0x00, 0x00, 0x00, 0xe0, 0xea, 0xff, 0xff, 0xb0, 0x04, 0x00, 0x00,
  0xc0, 0x2b, 0x3f, 0xbe, 0x16, 0x3a, 0x99, 0xbc, 0x0b, 0x67, 0x25, 0x3e,
  0x79, 0x13, 0xe2, 0x3e, 0x4b, 0xe0, 0xd6, 0x3c, 0xd7, 0x9b, 0x0a, 0xbe,
  0x2e, 0xb1, 0x66, 0xbd, 0xc7, 0x25, 0x0e, 0x3e, 0x8f, 0xcd, 0x75, 0xbe,
  0xb8, 0xc2, 0xfd, 0xbd, 0x55, 0xe9, 0xb1, 0x3c, 0x80, 0x29, 0x85, 0xbd,
  0xe8, 0x8c, 0x42, 0xbe, 0xa5, 0x4e, 0xea, 0xbd, 0x2c, 0xc2, 0x15, 0xbc,
  0xb6, 0xe1, 0x12, 0xbe, 0xc4, 0xe5, 0x36, 0x3e, 0x3b, 0xb0, 0x76, 0x3d,
  0x15, 0xd2, 0x43, 0x3c, 0x4e, 0x53, 0x92, 0x3c, 0x88, 0x00, 0x52, 0x3a,
  0x59, 0x7a, 0x8d, 0x3d, 0x47, 0x38, 0x10, 0x3e, 0xe4, 0xee, 0xae, 0x3e,
  0x8f, 0x5e, 0xc8, 0xbd, 0x9b, 0x2d, 0xd0, 0xbd, 0x77, 0x0c, 0x2c, 0xbe,
  0xfd, 0x74, 0x7a, 0xbb, 0x5c, 0x52, 0x5a, 0x3e, 0xe9, 0x3d, 0x7f, 0xbd,
  0xa6, 0xa5, 0x50, 0x3d, 0x7b, 0xdc, 0x91, 0x3d, 0xaa, 0x8c, 0x1b, 0xbe,
  0xe9, 0x40, 0xeb, 0xbe, 0x45, 0x11, 0x9b, 0x3e, 0x00, 0xc8, 0x51, 0xbe,
  0x90, 0xa9, 0x8f, 0x3e, 0xd4, 0xfb, 0xf2, 0x3d, 0x00, 0x8a, 0xc4, 0x3d,
  0x45, 0x1f, 0x52, 0x3d, 0xa9, 0xe4, 0xfb, 0x3d, 0x18, 0x6b, 0x48, 0x3e,
  0x2c, 0x34, 0xae, 0xbe, 0xc6, 0x7e, 0x12, 0x3e, 0xa7, 0x40, 0xdf, 0x3d,
  0x03, 0x99, 0x1f, 0x3e, 0x00, 0x40, 0x20, 0xbd, 0x46, 0x9a, 0x02, 0xbe,
  0xb1, 0xe5, 0x95, 0x3d, 0x5e, 0x83, 0xe7, 0xbd, 0x22, 0xe0, 0xa8, 0xbd,
  0x8b, 0x64, 0x52, 0xbe, 0x67, 0xad, 0x77, 0x3e, 0x66, 0xd1, 0xcb, 0x3b,
  0x05, 0xd1, 0x37, 0xbd, 0xfc, 0x6d, 0x7f, 0xbe, 0x84, 0x47, 0xfc, 0x3d,
  0x6f, 0x9d, 0x0b, 0xbe, 0x98, 0x80, 0x3e, 0xbe, 0xa5, 0x93, 0x2b, 0xbd,
  0x56, 0x10, 0x4d, 0x3e, 0xe2, 0x96, 0x07, 0x3e, 0xbe, 0x29, 0x98, 0x3d,
  0xac, 0x7c, 0x0e, 0x3d, 0x61, 0xe7, 0x65, 0x3d, 0x58, 0x08, 0x6f, 0xbd,
  0x72, 0xd5, 0x41, 0x3e, 0xed, 0x07, 0x66, 0x3d, 0xc3, 0xe9, 0x26, 0x3e,
  0x69, 0x7f, 0x0e, 0x3d, 0x6f, 0x01, 0x30, 0xbe, 0x64, 0x8a, 0x29, 0xbe,
  0x8f, 0x62, 0x48, 0xbe, 0x13, 0x06, 0xeb, 0xbd, 0xf4, 0xb1, 0xd3, 0xbd,
  0x84, 0x5f, 0xfd, 0xbb, 0x91, 0xde, 0xe2, 0x3d, 0x61, 0x6a, 0xa3, 0xbc,
  0xd7, 0x97, 0x1b, 0xbe, 0xdc, 0x96, 0x3f, 0xbd, 0xc4, 0x29, 0x53, 0x3c,
  0x58, 0xe2, 0xe3, 0x3e, 0x5a, 0x43, 0x17, 0x3e, 0x5e, 0x38, 0x11, 0x3e,
  0xca, 0x04, 0xb4, 0xbd, 0xbc, 0x92, 0x3a, 0xbd, 0x26, 0x75, 0x29, 0x3e,
  0xc6, 0x4b, 0x1c, 0xbe, 0x61, 0x08, 0x20, 0xbe, 0x20, 0x0d, 0x34, 0xbe,
  0xd7, 0x08, 0x42, 0x3d, 0xb0, 0xf6, 0x95, 0xbe, 0x41, 0x65, 0x22, 0xbe,
  0x27, 0x93, 0xdb, 0x3c, 0x01, 0x4f, 0xa3, 0x3d, 0x2e, 0x48, 0x9d, 0xbe,
  0xe0, 0xb3, 0xac, 0x3c, 0x3d, 0xb4, 0x2a, 0x3e, 0xdd, 0xb5, 0xa9, 0xbc,
  0x24, 0xe1, 0x00, 0xbe, 0xf6, 0x8b, 0xaf, 0xbd, 0xe3, 0x48, 0x05, 0xbe,
  0xc2, 0x69, 0x1b, 0xbe, 0x74, 0xcc, 0x8f, 0xbd, 0x78, 0x5f, 0x29, 0x3d,
  0x71, 0x3d, 0x01, 0x3e, 0x79, 0x2f, 0xa6, 0xbd, 0x0f, 0x88, 0x44, 0x3d,
  0x9b, 0x0b, 0x20, 0x3c, 0x67, 0x4d, 0xf2, 0x3d, 0x77, 0xb1, 0xc1, 0xbd,
  0x5e, 0x95, 0xf7, 0xbd, 0xaa, 0x39, 0xdc, 0x3d, 0x60, 0xee, 0x2d, 0xbe,
  0x6c, 0xbc, 0xe7, 0xbd, 0x81, 0xcd, 0x61, 0x3d, 0x82, 0x16, 0xb7, 0x3d,
  0x70, 0xc3, 0x31, 0xbe, 0x35, 0xcb, 0xca, 0xbd, 0x3a, 0x26, 0x4d, 0xbe,
  0x89, 0x56, 0x34, 0x3e, 0xd1, 0xe8, 0x84, 0x3c, 0xfb, 0x0a, 0xa3, 0xbe,
  0x30, 0xba, 0x56, 0xbd, 0x34, 0xb3, 0xe2, 0x3d, 0x1d, 0x4f, 0x58, 0x3b,
  0xcd, 0x12, 0xa3, 0xbd, 0x8d, 0x62, 0x15, 0x3e, 0x09, 0x63, 0x78, 0x3c,
  0x93, 0x0e, 0xad, 0xbc, 0x92, 0x32, 0x9d, 0x3c, 0x02, 0x88, 0xc7, 0x3d,
  0xd3, 0x0d, 0x4f, 0x3e, 0xf6, 0x47, 0x8c, 0x3e, 0x51, 0x83, 0x2a, 0xbe,
  0x06, 0xb6, 0x08, 0x3c, 0x7e, 0x1d, 0x85, 0xbe, 0x01, 0xaf, 0x3a, 0xbe,
  0x65, 0x19, 0x16, 0xbc, 0x28, 0x8f, 0x44, 0x3e, 0x93, 0xd6, 0x94, 0x3a,
  0x66, 0xc8, 0x77, 0xbe, 0x36, 0x56, 0x97, 0x3e, 0xba, 0x43, 0xcf, 0x3d,
  0xcb, 0x42, 0x4d, 0xbe, 0x48, 0x31, 0x14, 0xbd, 0x20, 0x10, 0x46, 0xbe,
  0x91, 0xaf, 0x37, 0xbe, 0x1c, 0x9d, 0x2a, 0x3e, 0xe2, 0x95, 0x4d, 0x3d,
  0xe3, 0xe7, 0x5b, 0x3e, 0x5c, 0x60, 0x16, 0xbe, 0xf2, 0xbd, 0xff, 0xbd,
  0xee, 0xdf, 0xec, 0xbd, 0x79, 0x6a, 0x72, 0x3e, 0x9d, 0x6c, 0x31, 0xbe,
  0x01, 0xd4, 0x69, 0xbc, 0x69, 0x03, 0xb6, 0xbb, 0x48, 0xe5, 0x1f, 0x3e,
  0x9d, 0xf0, 0xbc, 0x3c, 0xba, 0x84, 0x3d, 0xbe, 0xf0, 0x21, 0x68, 0x3d,
  0xe2, 0x34, 0xb4, 0xba, 0xc4, 0x03, 0x20, 0x3e, 0x28, 0xb2, 0x50, 0x3e,
  0xa8, 0x3a, 0xc8, 0xbd, 0x38, 0x68, 0xc0, 0x3d, 0xf1, 0xad, 0x92, 0x3d,
  0x32, 0x46, 0x24, 0xbe, 0x05, 0xaf, 0x83, 0x3c, 0x51, 0x3c, 0xa5, 0x3d,
  0x38, 0xc3, 0xe7, 0x3d, 0xa6, 0xcd, 0x2d, 0x3d, 0x7a, 0x63, 0x3f, 0xbe,
  0xc8, 0x15, 0x1e, 0x3e, 0xc3, 0x45, 0x00, 0xbe, 0x39, 0xbc, 0x02, 0x3e,
  0xf9, 0x63, 0x1d, 0xbd, 0x13, 0x65, 0x1a, 0x3e, 0xad, 0xd7, 0xc8, 0x3c,
  0x03, 0x64, 0x17, 0xbd, 0x85, 0x52, 0x65, 0xbe, 0xd7, 0x76, 0x63, 0x3e,
  0x43, 0x59, 0x02, 0xbe, 0x21, 0x01, 0x97, 0x3b, 0x67, 0x7c, 0x92, 0xbd,
  0x2a, 0x01, 0x4f, 0xbe, 0x94, 0x7b, 0x0f, 0xbe, 0xe2, 0x91, 0x82, 0xbe,
  0x5d, 0x04, 0x1e, 0x3e, 0xbb, 0x3f, 0x54, 0x3e, 0xa7, 0xe4, 0x1f, 0x3f,
  0xf5, 0x1b, 0xbd, 0xbe, 0xbb, 0xf9, 0x25, 0xbd, 0xc4, 0x06, 0x60, 0xbe,
  0x90, 0x50, 0x84, 0x3e, 0x4e, 0x9c, 0xee, 0xbd, 0x47, 0x52, 0x1c, 0xbe,
  0x0b, 0xbe, 0x0b, 0xbe, 0x92, 0x36, 0x29, 0x3e, 0x25, 0xe4, 0x50, 0x3e,
  0xb7, 0xde, 0x13, 0x3e, 0x36, 0x51, 0x31, 0xbe, 0x5c, 0xaa, 0x7a, 0x3e,
  0x40, 0xf9, 0x38, 0x3e, 0x2f, 0x76, 0x23, 0xbe, 0xf7, 0x0d, 0x25, 0x3e,
  0xe6, 0x91, 0x2c, 0xbe, 0xdd, 0xc8, 0xef, 0xbd, 0x3c, 0x71, 0x36, 0xbe,
  0x35, 0x8c, 0xe5, 0x3c, 0xb5, 0x98, 0xe1, 0xbd, 0x4e, 0x65, 0x7d, 0x3d,
  0x48, 0xb7, 0xaa, 0xbc, 0x37, 0xf6, 0xe2, 0xbd, 0x6f, 0x23, 0x10, 0xbe,
  0xfa, 0x3c, 0x95, 0x3d, 0x5f, 0x1a, 0x7d, 0x3d, 0x80, 0x4b, 0xf5, 0xbd,
  0x68, 0x40, 0xe0, 0x3b, 0xc1, 0xd2, 0x4c, 0xbe, 0x94, 0xc0, 0xc2, 0xbd,
  0x8a, 0xc9, 0x12, 0xbe, 0x02, 0x0e, 0xab, 0x3c, 0x30, 0x66, 0x16, 0xbc,
  0xd4, 0xb2, 0x19, 0xbe, 0x94, 0x92, 0x4b, 0xbe, 0x63, 0xa9, 0x0e, 0x3e,
  0x0f, 0xda, 0x50, 0x3c, 0x19, 0x8d, 0x1c, 0xbc, 0x3c, 0xc0, 0xd4, 0x3d,
  0x92, 0xad, 0x0f, 0xbe, 0xb3, 0x41, 0x5e, 0x3e, 0x66, 0xa5, 0x29, 0x3d,
  0x99, 0x90, 0xd1, 0x3c, 0xf2, 0x71, 0x16, 0x3d, 0x37, 0x5e, 0x18, 0xbd,
  0x0d, 0x2b, 0x40, 0xbe, 0xc1, 0xcc, 0x1f, 0xbe, 0xbd, 0x20, 0xb9, 0x3d,
  0x09, 0xca, 0xda, 0x3c, 0x3c, 0xea, 0x65, 0xbe, 0x9b, 0x53, 0x21, 0xbe,
  0xf1, 0xb1, 0xa0, 0xbc, 0x6e, 0x92, 0x15, 0x3e, 0x12, 0x7a, 0x9d, 0x3d,
  0x94, 0xa2, 0xf3, 0x3c, 0x76, 0xbb, 0x07, 0xbc, 0xc4, 0x17, 0x2c, 0xbe,
  0xfd, 0xe1, 0x09, 0xbe, 0x4e, 0x20, 0x94, 0xbd, 0xac, 0x48, 0xf7, 0xbd,
  0x6d, 0x70, 0x5e, 0x3d, 0xab, 0x11, 0x97, 0xbd, 0x47, 0xb3, 0x77, 0x3e,
  0x5c, 0xea, 0x2c, 0x3e, 0x84, 0xb7, 0x1a, 0xbe, 0x6a, 0x28, 0x1a, 0xbe,
  0xb4, 0x2d, 0x31, 0xbe, 0x73, 0xf5, 0x00, 0x3e, 0x7e, 0x3e, 0x9a, 0xbd,
  0x38, 0x3b, 0x51, 0xbe, 0x37, 0x1a, 0x9a, 0x3d, 0x01, 0x86, 0xac, 0xbc,
  0xfc, 0x12, 0x31, 0x3e, 0x0e, 0xa1, 0x84, 0xbd, 0x4a, 0x8a, 0x19, 0x3e,
  0xa6, 0xa3, 0x24, 0x3d, 0x6a, 0xc8, 0x39, 0xbe, 0x09, 0x02, 0x31, 0x3e,
  0xa1, 0x39, 0x72, 0xbd, 0x32, 0x31, 0xa2, 0xbe, 0x08, 0x86, 0x83, 0x3c,
  0xf5, 0xd0, 0x13, 0xbd, 0x4c, 0x70, 0x15, 0xbd, 0x93, 0x9d, 0x96, 0x3d,
  0xa6, 0xcc, 0xa2, 0x3e, 0x7a, 0x00, 0x62, 0x3d, 0x2b, 0xbc, 0x46, 0xbe,
  0x03, 0x34, 0x32, 0x3d, 0x4b, 0xa3, 0xa0, 0xbd, 0xa5, 0xad, 0x60, 0xbe,
  0x33, 0x7e, 0xe8, 0x3e, 0xa4, 0x35, 0x65, 0xbd, 0x44, 0x25, 0x11, 0xbe,
  0x93, 0x32, 0x15, 0x3e, 0x07, 0x8b, 0x0b, 0x3d, 0x85, 0x95, 0x88, 0xbc,
  0xaa, 0x47, 0xcb, 0xbc, 0xb1, 0xd3, 0x2f, 0x3e, 0xa9, 0x69, 0xc0, 0x3e,
  0x2c, 0xae, 0xd6, 0x3e, 0xce, 0xa0, 0x15, 0xbd, 0x8b, 0xf3, 0x35, 0xbf,
  0x60, 0x9e, 0x88, 0xbe, 0xdd, 0xfe, 0x68, 0x3f, 0x2e, 0x1f, 0x3f, 0xbe,
  0xa6, 0xf4, 0x3a, 0xbe, 0xa7, 0x6a, 0x8c, 0x3d, 0x25, 0x3b, 0x53, 0xbe,
  0xa2, 0xf0, 0xff, 0xff, 0x10, 0x00, 0x00, 0x00, 0x0d, 0x00, 0x00, 0x00,
  0x14, 0x00, 0x00, 0x00, 0x4c, 0x00, 0x00, 0x00, 0x02, 0x00, 0x00, 0x00,
  0x01, 0x00, 0x00, 0x00, 0x05, 0x00, 0x00, 0x00, 0x35, 0x00, 0x00, 0x00,
  0x73, 0x65, 0x71, 0x75, 0x65, 0x6e, 0x74, 0x69, 0x61, 0x6c, 0x5f, 0x31,
  0x2f, 0x64, 0x65, 0x6e, 0x73, 0x65, 0x5f, 0x31, 0x33, 0x2f, 0x4d, 0x61,
  0x74, 0x4d, 0x75, 0x6c, 0x2f, 0x52, 0x65, 0x61, 0x64, 0x56, 0x61, 0x72,
  0x69, 0x61, 0x62, 0x6c, 0x65, 0x4f, 0x70, 0x2f, 0x74, 0x72, 0x61, 0x6e,
  0x73, 0x70, 0x6f, 0x73, 0x65, 0x00, 0x00, 0x00, 0xf4, 0xef, 0xff, 0xff,
  0x14, 0x00, 0x00, 0x00, 0x3d, 0x16, 0xfb, 0xbe, 0xe0, 0x0f, 0x86, 0xbd,
  0x09, 0xf8, 0x4d, 0xbf, 0x66, 0xdc, 0xf4, 0xbe, 0x3e, 0x2b, 0x30, 0xbe,
  0x1a, 0xf1, 0xff, 0xff, 0x10, 0x00, 0x00, 0x00, 0x0c, 0x00, 0x00, 0x00,
  0x14, 0x00, 0x00, 0x00, 0x4c, 0x00, 0x00, 0x00, 0x02, 0x00, 0x00, 0x00,
  0x0a, 0x00, 0x00, 0x00, 0x0f, 0x00, 0x00, 0x00, 0x34, 0x00, 0x00, 0x00,
  0x73, 0x65, 0x71, 0x75, 0x65, 0x6e, 0x74, 0x69, 0x61, 0x6c, 0x5f, 0x31,
  0x2f, 0x64, 0x65, 0x6e, 0x73, 0x65, 0x5f, 0x33, 0x2f, 0x4d, 0x61, 0x74,
  0x4d, 0x75, 0x6c, 0x2f, 0x52, 0x65, 0x61, 0x64, 0x56, 0x61, 0x72, 0x69,
  0x61, 0x62, 0x6c, 0x65, 0x4f, 0x70, 0x2f, 0x74, 0x72, 0x61, 0x6e, 0x73,
  0x70, 0x6f, 0x73, 0x65, 0x00, 0x00, 0x00, 0x00, 0x6c, 0xf0, 0xff, 0xff,
  0x58, 0x02, 0x00, 0x00, 0x9a, 0x12, 0xa9, 0xbe, 0x80, 0x0e, 0x11, 0xbf,
  0xeb, 0x9e, 0x00, 0xbe, 0x87, 0xc8, 0x6a, 0x3e, 0xb1, 0xe3, 0x92, 0xbc,
  0x1c, 0x7a, 0x3f, 0x3e, 0xce, 0x31, 0x8b, 0x3d, 0x88, 0xb2, 0xe6, 0xbe,
  0x3d, 0xb3, 0x66, 0xbe, 0x55, 0x70, 0xe5, 0x3e, 0x96, 0xea, 0x24, 0xbe,
  0x93, 0x3c, 0x6b, 0xbe, 0x23, 0xa1, 0xd9, 0xbd, 0x9a, 0x58, 0x67, 0xbe,
  0x1e, 0xf7, 0x23, 0x3f, 0x46, 0xcf, 0x6b, 0x3e, 0xa0, 0x00, 0xf3, 0x3d,
  0x1d, 0x87, 0x7b, 0x3e, 0x48, 0xe0, 0x85, 0xbe, 0x9b, 0x07, 0xf9, 0x3e,
  0x8c, 0xf5, 0x67, 0xbc, 0xd5, 0x17, 0xb0, 0x3c, 0xbc, 0xd7, 0xac, 0xbd,
  0x8f, 0x09, 0x32, 0x3e, 0xbd, 0x5e, 0x97, 0xbd, 0xdb, 0x5a, 0x99, 0xbd,
  0x34, 0x8e, 0xe9, 0x3d, 0xbf, 0xea, 0x6a, 0xbc, 0x64, 0x2a, 0xb6, 0x3d,
  0xf9, 0xaf, 0xd9, 0xbe, 0x88, 0x5a, 0x0c, 0xbe, 0x40, 0x3a, 0x70, 0xbe,
  0xdc, 0xfd, 0x3d, 0x3e, 0x0c, 0x10, 0x82, 0x3c, 0x87, 0x83, 0x02, 0x3e,
  0xd8, 0x37, 0x66, 0xbe, 0x7d, 0x77, 0x15, 0xbd, 0x20, 0x3a, 0x03, 0x3e,
  0x9b, 0x2f, 0x56, 0xbe, 0x0b, 0xc6, 0x2e, 0xbc, 0x89, 0xc9, 0x2a, 0xbb,
  0xcc, 0xac, 0xc6, 0xbd, 0x65, 0x13, 0x15, 0xbd, 0xa3, 0x24, 0x2d, 0x3e,
  0xf5, 0xec, 0x14, 0xbe, 0xac, 0xbf, 0x14, 0xbe, 0x60, 0xf6, 0x49, 0xbe,
  0xa8, 0xaa, 0xef, 0xbc, 0xa4, 0x8c, 0x5c, 0xbe, 0xbd, 0xff, 0xaa, 0x3d,
  0x72, 0x15, 0xd8, 0x3d, 0x84, 0x4a, 0x4b, 0xbd, 0x23, 0x5e, 0x4c, 0xbd,
  0x3a, 0x72, 0xf2, 0xbd, 0x1c, 0xf0, 0x47, 0xbe, 0x2b, 0x93, 0x41, 0xbe,
  0xf6, 0x4b, 0x28, 0xbd, 0x84, 0x4e, 0x73, 0x3e, 0x6b, 0x83, 0x9f, 0xbd,
  0xbe, 0xb9, 0x14, 0x3e, 0xb0, 0xb4, 0x07, 0x3e, 0x6e, 0x21, 0x64, 0xbe,
  0xb7, 0x19, 0x28, 0xbe, 0xe4, 0xbb, 0x2b, 0x3d, 0x2e, 0xdd, 0x8b, 0x3d,
  0x1b, 0x61, 0xf0, 0xbd, 0x60, 0xf6, 0x8e, 0x3d, 0xfe, 0x20, 0xf6, 0x3b,
  0x69, 0x03, 0xed, 0x3d, 0x8a, 0x46, 0x44, 0xbe, 0x6a, 0x47, 0x5e, 0xbe,
  0xd0, 0x5c, 0x0d, 0x3e, 0x9d, 0x3f, 0xb5, 0xbd, 0x2c, 0xb4, 0xa7, 0xbb,
  0x38, 0x9d, 0x10, 0xbe, 0x65, 0xd1, 0x1b, 0x3e, 0xbe, 0x6b, 0x2d, 0xbe,
  0xb5, 0x11, 0x1f, 0x3e, 0xfb, 0x56, 0x9f, 0xbd, 0x2d, 0xc7, 0x4e, 0xbe,
  0x7b, 0xc2, 0x8a, 0x3d, 0x0b, 0x02, 0x39, 0xbe, 0x22, 0x66, 0x18, 0xbe,
  0x4c, 0x6f, 0x17, 0xbe, 0x1f, 0x50, 0x17, 0xbe, 0x8d, 0x50, 0x3c, 0x3d,
  0xb7, 0x81, 0x5c, 0x3d, 0xfd, 0x52, 0x0e, 0x3e, 0x6d, 0x15, 0xc5, 0xbd,
  0xd0, 0xf2, 0x98, 0xbc, 0x7c, 0x00, 0x92, 0xbd, 0x19, 0x38, 0xfa, 0xbd,
  0x4c, 0x13, 0x5a, 0xbe, 0xf2, 0x99, 0x19, 0xbe, 0x4c, 0x29, 0x76, 0xbc,
  0xa7, 0xc4, 0xda, 0x3d, 0x18, 0x30, 0xff, 0xbe, 0x51, 0x3b, 0x40, 0xbe,
  0x0f, 0xdb, 0x22, 0x3e, 0xf9, 0x62, 0xa2, 0x3e, 0xfe, 0xe5, 0x7e, 0x3e,
  0x5c, 0x65, 0x0d, 0x3e, 0xed, 0x04, 0x5f, 0x3e, 0x1f, 0xbe, 0x3f, 0xbe,
  0xf9, 0x36, 0xdc, 0x3e, 0x8e, 0x4c, 0x44, 0x3d, 0x51, 0x03, 0x34, 0x3e,
  0x39, 0xde, 0x6f, 0x3e, 0x07, 0xf0, 0x04, 0x3d, 0x8f, 0x61, 0x06, 0x3e,
  0x04, 0x21, 0xdd, 0x3d, 0x14, 0xff, 0xb8, 0xbd, 0xe0, 0xe6, 0x6a, 0xbe,
  0xa0, 0xb8, 0xf8, 0xbc, 0xb5, 0xf0, 0x07, 0x3e, 0xb6, 0xf3, 0xa9, 0x3d,
  0xcd, 0xd9, 0x5a, 0xbe, 0xf8, 0x59, 0x1b, 0xbe, 0xd7, 0x44, 0x31, 0xbe,
  0x50, 0x4c, 0xbf, 0xbd, 0xb8, 0x99, 0xf8, 0x3d, 0x1c, 0xf1, 0xb1, 0xbd,
  0xbb, 0xe3, 0x13, 0x3e, 0x6c, 0x77, 0x27, 0x3e, 0xe5, 0x95, 0xb6, 0x3d,
  0x4c, 0xf3, 0x90, 0x3d, 0xb5, 0x7c, 0x82, 0x3d, 0xac, 0x90, 0xa1, 0xbd,
  0xb8, 0xb2, 0x20, 0xbe, 0xc5, 0xbc, 0x2e, 0xbe, 0xb3, 0x97, 0x6e, 0x3e,
  0x29, 0xda, 0xca, 0x3c, 0xdb, 0x47, 0x1c, 0x3d, 0x40, 0xb1, 0x1a, 0x3e,
  0xcc, 0x66, 0x75, 0xbe, 0x71, 0x3b, 0x67, 0xbd, 0x99, 0x62, 0x5f, 0xbe,
  0x36, 0x30, 0x0d, 0x3e, 0xc1, 0x56, 0xbf, 0xbd, 0x86, 0x87, 0x37, 0xbe,
  0x24, 0x71, 0x69, 0xbd, 0x51, 0x7f, 0xa6, 0x3b, 0xf9, 0x54, 0xb3, 0xbd,
  0x7f, 0x1c, 0x2e, 0xbe, 0x7e, 0x04, 0x66, 0xbe, 0x16, 0x83, 0xc8, 0xbd,
  0x89, 0x1d, 0xae, 0xbd, 0xd3, 0xdd, 0x4e, 0x3d, 0x9f, 0x51, 0xb6, 0x3c,
  0xfb, 0xac, 0x7e, 0xbe, 0xd6, 0xf3, 0xff, 0xff, 0x10, 0x00, 0x00, 0x00,
  0x0b, 0x00, 0x00, 0x00, 0x14, 0x00, 0x00, 0x00, 0x4c, 0x00, 0x00, 0x00,
  0x02, 0x00, 0x00, 0x00, 0x0a, 0x00, 0x00, 0x00, 0x0a, 0x00, 0x00, 0x00,
  0x34, 0x00, 0x00, 0x00, 0x73, 0x65, 0x71, 0x75, 0x65, 0x6e, 0x74, 0x69,
  0x61, 0x6c, 0x5f, 0x31, 0x2f, 0x64, 0x65, 0x6e, 0x73, 0x65, 0x5f, 0x34,
  0x2f, 0x4d, 0x61, 0x74, 0x4d, 0x75, 0x6c, 0x2f, 0x52, 0x65, 0x61, 0x64,
  0x56, 0x61, 0x72, 0x69, 0x61, 0x62, 0x6c, 0x65, 0x4f, 0x70, 0x2f, 0x74,
  0x72, 0x61, 0x6e, 0x73, 0x70, 0x6f, 0x73, 0x65, 0x00, 0x00, 0x00, 0x00,
  0x28, 0xf3, 0xff, 0xff, 0x90, 0x01, 0x00, 0x00, 0xde, 0x57, 0xff, 0xbb,
  0x91, 0x5a, 0xe5, 0x3c, 0x94, 0xe4, 0x52, 0x3e, 0x1a, 0x3e, 0x07, 0x3e,
  0x8c, 0x9a, 0x1a, 0xbe, 0x81, 0xfb, 0x1c, 0x3e, 0xcc, 0x98, 0x65, 0xbe,
  0xf2, 0x86, 0x86, 0xbd, 0x53, 0xf6, 0xfc, 0xba, 0x1f, 0x76, 0x1c, 0x3e,
  0x05, 0xfa, 0xc2, 0x3e, 0x6d, 0xa6, 0x03, 0xbe, 0xb7, 0x64, 0xc4, 0xbc,
  0x79, 0x34, 0x37, 0x3e, 0xba, 0xc8, 0x07, 0x3e, 0x4b, 0xa1, 0x51, 0x3e,
  0xed, 0xfb, 0x22, 0x3e, 0x31, 0x61, 0x32, 0x3d, 0xf1, 0x47, 0x20, 0x3e,
  0xca, 0x54, 0x76, 0x3d, 0xb2, 0x84, 0xc2, 0x3e, 0x79, 0x63, 0x81, 0x3e,
  0x21, 0x9f, 0xbc, 0x3b, 0x39, 0x83, 0x6d, 0xbe, 0xae, 0xca, 0xd9, 0xbd,
  0x59, 0xc3, 0x00, 0xbe, 0x51, 0x3e, 0x15, 0xbc, 0x16, 0x63, 0x93, 0x3e,
  0xde, 0x7b, 0x00, 0x3e, 0xad, 0x51, 0xe0, 0x3d, 0xda, 0x8b, 0x30, 0xbd,
  0x51, 0xdf, 0x15, 0xbe, 0xa7, 0xfe, 0x16, 0x3e, 0xc2, 0x29, 0x29, 0xbe,
  0xb4, 0x52, 0x55, 0x3e, 0xf5, 0x8f, 0x81, 0xbd, 0x5d, 0x78, 0x02, 0xbe,
  0x14, 0x1e, 0x9f, 0xbb, 0xad, 0x3f, 0x5d, 0x3e, 0x80, 0xb2, 0x75, 0xba,
  0xb1, 0x44, 0xde, 0x3e, 0xf8, 0xcb, 0xab, 0x3a, 0x97, 0x78, 0x4c, 0xbe,
  0xab, 0xfd, 0xee, 0x3d, 0x48, 0x11, 0x57, 0x3e, 0x47, 0xf6, 0x35, 0x3e,
  0xf7, 0x8c, 0x12, 0x3d, 0x93, 0x95, 0x53, 0xbd, 0xa7, 0x78, 0x73, 0xbe,
  0x0d, 0xaf, 0x29, 0x3b, 0x33, 0xb9, 0x3f, 0xbd, 0x50, 0xb2, 0x83, 0xbe,
  0x38, 0x50, 0x5a, 0xbc, 0xb8, 0xeb, 0x3b, 0x3e, 0x3d, 0xf6, 0x81, 0x3d,
  0x17, 0x32, 0x15, 0x3e, 0x0d, 0x05, 0x02, 0xbd, 0x66, 0xd4, 0x60, 0x3c,
  0xbe, 0x3c, 0x25, 0xbe, 0x8b, 0x8f, 0x5e, 0xbd, 0x59, 0x12, 0xf4, 0x3e,
  0x3e, 0xfe, 0x0b, 0xbe, 0x35, 0x8d, 0xd8, 0xbd, 0xff, 0xe4, 0x4f, 0x3d,
  0xbe, 0x12, 0xb9, 0xbc, 0xab, 0xa1, 0x37, 0x3e, 0x3b, 0x43, 0xe9, 0x3e,
  0x4c, 0x97, 0x48, 0xbe, 0xfa, 0x8e, 0x33, 0xbd, 0x63, 0x66, 0xb2, 0xbb,
  0xd9, 0xbc, 0x5a, 0xbe, 0xb1, 0xc8, 0xd7, 0x3e, 0xae, 0x15, 0x54, 0x3e,
  0xaa, 0x39, 0x73, 0x3d, 0x71, 0xd4, 0x3e, 0xbd, 0x4f, 0x11, 0x58, 0xbe,
  0x16, 0x64, 0xd9, 0x3c, 0x7c, 0xb2, 0x50, 0xbe, 0x32, 0xd9, 0x9c, 0x3e,
  0xfe, 0x22, 0x50, 0xbe, 0xf1, 0x5a, 0x05, 0x3e, 0x44, 0xf6, 0x79, 0x3e,
  0xb3, 0x7f, 0xa6, 0x3d, 0x9a, 0x8b, 0xe8, 0x3d, 0x51, 0xed, 0x7c, 0xbe,
  0x3d, 0x38, 0x2d, 0x3e, 0x29, 0x0c, 0x77, 0xbe, 0x65, 0x5d, 0x20, 0x3e,
  0xd2, 0x32, 0xa5, 0x3e, 0x60, 0xf9, 0x3f, 0x3d, 0xcb, 0x0e, 0xa2, 0xbe,
  0x86, 0x87, 0xa7, 0x3d, 0x21, 0x21, 0x0e, 0x3e, 0x71, 0x91, 0x68, 0x3e,
  0xe0, 0xa4, 0x58, 0xbe, 0xf9, 0x02, 0x55, 0xbe, 0xbd, 0xa0, 0x90, 0x3e,
  0x74, 0xaf, 0xb2, 0x3e, 0x32, 0xa7, 0x13, 0x3e, 0xb9, 0x2e, 0xf4, 0x3d,
  0xca, 0xf5, 0xff, 0xff, 0x10, 0x00, 0x00, 0x00, 0x0a, 0x00, 0x00, 0x00,
  0x14, 0x00, 0x00, 0x00, 0x4c, 0x00, 0x00, 0x00, 0x02, 0x00, 0x00, 0x00,
  0x0a, 0x00, 0x00, 0x00, 0x0a, 0x00, 0x00, 0x00, 0x34, 0x00, 0x00, 0x00,
  0x73, 0x65, 0x71, 0x75, 0x65, 0x6e, 0x74, 0x69, 0x61, 0x6c, 0x5f, 0x31,
  0x2f, 0x64, 0x65, 0x6e, 0x73, 0x65, 0x5f, 0x36, 0x2f, 0x4d, 0x61, 0x74,
  0x4d, 0x75, 0x6c, 0x2f, 0x52, 0x65, 0x61, 0x64, 0x56, 0x61, 0x72, 0x69,
  0x61, 0x62, 0x6c, 0x65, 0x4f, 0x70, 0x2f, 0x74, 0x72, 0x61, 0x6e, 0x73,
  0x70, 0x6f, 0x73, 0x65, 0x00, 0x00, 0x00, 0x00, 0x1c, 0xf5, 0xff, 0xff,
  0x90, 0x01, 0x00, 0x00, 0x06, 0xca, 0x3f, 0x3e, 0x1c, 0xd0, 0x6f, 0xbe,
  0xc9, 0x7b, 0x11, 0x3f, 0x76, 0x75, 0x02, 0x3d, 0x0c, 0x93, 0x84, 0xbd,
  0x16, 0x7d, 0xf3, 0x3c, 0x80, 0x80, 0x54, 0x3d, 0x37, 0x7e, 0xe5, 0x3d,
  0x15, 0x6e, 0xcd, 0x3d, 0x6b, 0xd9, 0x45, 0x3e, 0xf4, 0xd6, 0x96, 0x3e,
  0x3c, 0xdd, 0xe6, 0x3d, 0x14, 0x46, 0xfa, 0x3e, 0x58, 0xc6, 0xd3, 0x3d,
  0x1e, 0x96, 0xb1, 0x3b, 0xff, 0x18, 0xc9, 0x3b, 0x73, 0xbd, 0x7c, 0x3c,
  0x39, 0xc3, 0x1c, 0xbe, 0xeb, 0x32, 0x78, 0xbc, 0x9c, 0x93, 0x0c, 0x3e,
  0x69, 0x4c, 0x83, 0x3e, 0x76, 0x09, 0xb8, 0x3e, 0xf7, 0x42, 0x01, 0xbe,
  0x87, 0x95, 0x72, 0x3e, 0xd0, 0x0d, 0x70, 0x3e, 0x46, 0x6c, 0x5d, 0x3e,
  0x4c, 0xd3, 0x0a, 0xbe, 0x16, 0x4d, 0x78, 0xbe, 0xb0, 0xa3, 0xf5, 0xbd,
  0x6f, 0xdf, 0x57, 0x3e, 0x6b, 0x18, 0xe4, 0xbd, 0x93, 0x04, 0x1c, 0xbe,
  0xa2, 0x56, 0x64, 0xbe, 0x12, 0x4f, 0x02, 0x3e, 0x1f, 0x1a, 0x23, 0x3e,
  0x90, 0x32, 0x89, 0x3e, 0xa6, 0x2c, 0x69, 0xbe, 0x93, 0x52, 0x3d, 0x3e,
  0x92, 0x52, 0x3e, 0x3e, 0x1d, 0xed, 0x5b, 0xbc, 0x96, 0x97, 0x87, 0xbb,
  0x24, 0x89, 0x14, 0xbe, 0x79, 0x33, 0xcb, 0xbd, 0x4e, 0x13, 0x16, 0x3e,
  0x1a, 0xeb, 0xd4, 0x3d, 0xee, 0x69, 0x47, 0x3d, 0x86, 0xce, 0x3d, 0x3e,
  0xad, 0xf5, 0x07, 0x3e, 0x55, 0x0e, 0x2e, 0xbe, 0xe6, 0x4e, 0x2b, 0xbe,
  0x01, 0xc2, 0x0b, 0xbe, 0x4c, 0x83, 0xff, 0xbd, 0x82, 0xa3, 0xf9, 0x3d,
  0x3b, 0x6c, 0x88, 0x3d, 0x92, 0x1b, 0xfc, 0xbd, 0x3e, 0x0b, 0xd5, 0xba,
  0xc4, 0xa7, 0xdc, 0xbd, 0xb4, 0xd1, 0x7d, 0x3d, 0x9f, 0xbb, 0x22, 0xbe,
  0x02, 0x1c, 0x97, 0xbd, 0xa6, 0x9c, 0x54, 0xbe, 0xa1, 0xb2, 0xf8, 0x3d,
  0x95, 0xc2, 0xf6, 0xbd, 0x99, 0xf9, 0x89, 0xbd, 0x05, 0x4a, 0x0c, 0xbe,
  0x0a, 0x0d, 0x5a, 0xbe, 0x94, 0x7d, 0x69, 0xbd, 0xf9, 0x2c, 0x85, 0x3d,
  0x19, 0x96, 0x26, 0x3d, 0x59, 0x36, 0xa4, 0xbd, 0x54, 0xad, 0x0f, 0xbe,
  0xc7, 0x84, 0xbd, 0x3e, 0x5d, 0x46, 0x07, 0xbe, 0x06, 0x31, 0xba, 0x3e,
  0x2e, 0xc1, 0xc1, 0x3d, 0xbc, 0x28, 0x69, 0xbe, 0xc0, 0x14, 0x11, 0x3e,
  0x68, 0x7b, 0x2d, 0x3e, 0x9b, 0xd4, 0x3d, 0xbe, 0x95, 0xd1, 0x05, 0xbe,
  0x45, 0x6d, 0x1e, 0x3e, 0xc4, 0xd7, 0x18, 0xbe, 0xe3, 0xf1, 0x95, 0x3e,
  0xaa, 0x70, 0x01, 0x3d, 0x6a, 0x0e, 0xbf, 0x3d, 0x6d, 0x78, 0x88, 0x3e,
  0xbe, 0x00, 0x71, 0x3e, 0xd1, 0x3d, 0x0f, 0x3e, 0xdc, 0x64, 0x7d, 0x3c,
  0x06, 0x0b, 0x6c, 0xbe, 0x4c, 0xcc, 0xf4, 0x3d, 0x31, 0x81, 0x81, 0xbd,
  0xa3, 0x94, 0x79, 0xbe, 0x24, 0x86, 0xe3, 0x3d, 0xc8, 0x91, 0x15, 0xbe,
  0x19, 0x75, 0x35, 0xbe, 0xb3, 0x9d, 0x89, 0xbd, 0x5e, 0x76, 0x86, 0xbe,
  0x3c, 0x8d, 0xf1, 0x3d, 0x23, 0x22, 0xa5, 0x3d, 0xbe, 0xf7, 0xff, 0xff,
  0x10, 0x00, 0x00, 0x00, 0x09, 0x00, 0x00, 0x00, 0x14, 0x00, 0x00, 0x00,
  0x4c, 0x00, 0x00, 0x00, 0x02, 0x00, 0x00, 0x00, 0x0a, 0x00, 0x00, 0x00,
  0x0a, 0x00, 0x00, 0x00, 0x34, 0x00, 0x00, 0x00, 0x73, 0x65, 0x71, 0x75,
  0x65, 0x6e, 0x74, 0x69, 0x61, 0x6c, 0x5f, 0x31, 0x2f, 0x64, 0x65, 0x6e,
  0x73, 0x65, 0x5f, 0x37, 0x2f, 0x4d, 0x61, 0x74, 0x4d, 0x75, 0x6c, 0x2f,
  0x52, 0x65, 0x61, 0x64, 0x56, 0x61, 0x72, 0x69, 0x61, 0x62, 0x6c, 0x65,
  0x4f, 0x70, 0x2f, 0x74, 0x72, 0x61, 0x6e, 0x73, 0x70, 0x6f, 0x73, 0x65,
  0x00, 0x00, 0x00, 0x00, 0x10, 0xf7, 0xff, 0xff, 0x90, 0x01, 0x00, 0x00,
  0x7a, 0x84, 0xc4, 0x3e, 0xff, 0xda, 0xb2, 0x3e, 0xa0, 0xaf, 0x63, 0xbe,
  0xf9, 0x4e, 0x4d, 0xbe, 0x45, 0xd8, 0x00, 0x3e, 0xac, 0xc2, 0x5f, 0xbd,
  0x00, 0xf7, 0x94, 0x3d, 0x19, 0xcb, 0xd6, 0x3d, 0x7f, 0xb3, 0xb4, 0x3d,
  0x8a, 0xba, 0xc2, 0xbd, 0xea, 0xb0, 0x9b, 0x3e, 0x97, 0xb6, 0x96, 0x3e,
  0x54, 0x97, 0x89, 0x3c, 0x85, 0x25, 0x7f, 0xbe, 0x50, 0x6e, 0x10, 0xbe,
  0x42, 0x27, 0x3d, 0x3e, 0xfb, 0x04, 0x2b, 0xbd, 0x4f, 0x1d, 0x6d, 0xbe,
  0x96, 0xe4, 0x82, 0x3e, 0xd7, 0x3c, 0x63, 0x3e, 0x1c, 0x99, 0x0d, 0xbe,
  0x1e, 0x16, 0x14, 0xbe, 0x9e, 0xc8, 0x1f, 0xbe, 0xaf, 0x7b, 0x64, 0x3e,
  0x18, 0xfa, 0x8a, 0xbe, 0x63, 0xfc, 0x48, 0x3e, 0x77, 0xe9, 0xa7, 0xbc,
  0x44, 0xac, 0x28, 0xbc, 0x6b, 0x5c, 0xbf, 0xbc, 0x82, 0x4b, 0x7c, 0x3d,
  0xbb, 0x60, 0xba, 0x3e, 0xb4, 0x51, 0x5b, 0xbc, 0xce, 0xaa, 0x0e, 0xbe,
  0x52, 0xa5, 0x40, 0x3e, 0x73, 0x71, 0x21, 0x3e, 0x32, 0x56, 0xe0, 0x3d,
  0x72, 0x27, 0x67, 0xbe, 0x0e, 0x02, 0x6e, 0x3c, 0xac, 0x69, 0x94, 0xbd,
  0x00, 0x12, 0xef, 0xbc, 0xe3, 0x1e, 0xb3, 0x3d, 0xe7, 0x92, 0x04, 0x3e,
  0x3d, 0x95, 0x17, 0xbe, 0x39, 0x9a, 0x21, 0xbe, 0xb6, 0x33, 0x80, 0xbd,
  0x11, 0xa8, 0xb7, 0x3d, 0x77, 0xa1, 0x3a, 0x3e, 0x65, 0xcc, 0xbb, 0xbd,
  0xc6, 0xfe, 0x46, 0x3e, 0x8d, 0x6a, 0x02, 0xbe, 0xe1, 0x40, 0xc8, 0xbd,
  0xfd, 0x52, 0xb0, 0x3e, 0x8e, 0x8b, 0x87, 0x3e, 0xa8, 0x65, 0xe8, 0xbc,
  0x0a, 0xc3, 0x44, 0xbe, 0xf9, 0x88, 0x71, 0xbe, 0xd7, 0x62, 0x29, 0xbd,
  0x2a, 0x89, 0x3e, 0xbe, 0x67, 0x0f, 0xc9, 0x3c, 0x59, 0x96, 0x3c, 0x3d,
  0x3a, 0x01, 0x4d, 0x3e, 0x35, 0xce, 0x75, 0xbe, 0x5c, 0xb6, 0xdc, 0x3d,
  0x69, 0x29, 0x7f, 0x3e, 0xbf, 0x97, 0x8b, 0xbe, 0xd2, 0xe6, 0x3a, 0x3d,
  0x63, 0xf2, 0xb7, 0x3d, 0x23, 0xdf, 0x14, 0xbe, 0x3b, 0xdf, 0x2d, 0xbe,
  0x06, 0x0b, 0x8b, 0xbe, 0x40, 0x3c, 0x84, 0xbe, 0x21, 0xa0, 0x63, 0x3e,
  0x58, 0xfa, 0x95, 0x3e, 0xef, 0x2a, 0x02, 0xbd, 0x6b, 0x93, 0x82, 0xbd,
  0x9e, 0xe7, 0x56, 0x3e, 0x69, 0xff, 0xc9, 0xbc, 0x84, 0xdc, 0xe1, 0x3e,
  0xd9, 0x4e, 0xf0, 0xbd, 0xe4, 0x34, 0x21, 0x3d, 0xa4, 0xe4, 0x1e, 0xbc,
  0xb7, 0xcb, 0x31, 0xbe, 0xd3, 0x8b, 0x88, 0x3e, 0x49, 0x40, 0x1f, 0xbe,
  0x25, 0x15, 0x88, 0xbe, 0xbe, 0xb0, 0x79, 0xbe, 0x5b, 0x64, 0xa2, 0xbd,
  0x5b, 0xa3, 0xa9, 0x3e, 0x3c, 0x18, 0x22, 0xbe, 0xce, 0x14, 0xf4, 0xbd,
  0xb9, 0x11, 0x08, 0xbe, 0x84, 0x63, 0x4b, 0xbe, 0x66, 0xbb, 0xff, 0x3c,
  0x32, 0x77, 0x72, 0xbe, 0x7f, 0x70, 0x0d, 0xbc, 0x72, 0xc5, 0xf1, 0x3c,
  0x80, 0x0d, 0x71, 0x3d, 0x10, 0x2b, 0xb2, 0xbd, 0x66, 0x18, 0xfe, 0xbd,
  0xba, 0xdf, 0x8c, 0x3d, 0xb2, 0xf9, 0xff, 0xff, 0x10, 0x00, 0x00, 0x00,
  0x08, 0x00, 0x00, 0x00, 0x14, 0x00, 0x00, 0x00, 0x4c, 0x00, 0x00, 0x00,
  0x02, 0x00, 0x00, 0x00, 0x0a, 0x00, 0x00, 0x00, 0x0a, 0x00, 0x00, 0x00,
  0x34, 0x00, 0x00, 0x00, 0x73, 0x65, 0x71, 0x75, 0x65, 0x6e, 0x74, 0x69,
  0x61, 0x6c, 0x5f, 0x31, 0x2f, 0x64, 0x65, 0x6e, 0x73, 0x65, 0x5f, 0x38,
  0x2f, 0x4d, 0x61, 0x74, 0x4d, 0x75, 0x6c, 0x2f, 0x52, 0x65, 0x61, 0x64,
  0x56, 0x61, 0x72, 0x69, 0x61, 0x62, 0x6c, 0x65, 0x4f, 0x70, 0x2f, 0x74,
  0x72, 0x61, 0x6e, 0x73, 0x70, 0x6f, 0x73, 0x65, 0x00, 0x00, 0x00, 0x00,
  0x04, 0xf9, 0xff, 0xff, 0x90, 0x01, 0x00, 0x00, 0x54, 0xcb, 0x40, 0x3e,
  0xa4, 0x92, 0xb5, 0xbc, 0x4e, 0xc2, 0x45, 0xbe, 0xed, 0xb3, 0xdd, 0xbd,
  0xe0, 0xda, 0x7b, 0xbe, 0x56, 0x00, 0x56, 0xbe, 0xf0, 0xfa, 0x8c, 0x3d,
  0x08, 0x49, 0x05, 0xbd, 0x2f, 0xff, 0xdd, 0x3d, 0x31, 0x7d, 0xac, 0xbd,
  0xac, 0x8f, 0x91, 0x3e, 0xcc, 0x05, 0x65, 0x3e, 0x5e, 0xbf, 0x92, 0x3d,
  0x7b, 0xab, 0xb1, 0x3d, 0x15, 0x53, 0x23, 0xbe, 0x64, 0x85, 0x13, 0x3d,
  0x82, 0x7e, 0xa0, 0x3d, 0x56, 0x8a, 0x3e, 0xbe, 0x07, 0x53, 0x73, 0x3e,
  0x05, 0x2a, 0x22, 0xbe, 0x07, 0x96, 0x41, 0x3e, 0x10, 0x19, 0x1f, 0x3e,
  0xad, 0x45, 0x0a, 0x3d, 0x07, 0x8b, 0x3e, 0xbe, 0xed, 0x98, 0x81, 0xbe,
  0x2c, 0xd9, 0x81, 0x3e, 0x84, 0xc6, 0x44, 0x3e, 0x82, 0xfd, 0x2c, 0x3e,
  0x8c, 0x94, 0xc2, 0xbc, 0x06, 0xf7, 0xe2, 0xbd, 0x0a, 0x19, 0x47, 0x3e,
  0xe7, 0x6c, 0x49, 0x3e, 0xae, 0x91, 0x60, 0xbe, 0xe8, 0x51, 0x7d, 0x3e,
  0x30, 0x39, 0x50, 0x3e, 0x33, 0xdc, 0x26, 0xbe, 0xc7, 0x28, 0xe1, 0x3d,
  0x47, 0x21, 0x42, 0xbe, 0x25, 0x34, 0x90, 0x3d, 0x44, 0xfb, 0x30, 0xbe,
  0x51, 0xc8, 0xe0, 0xbc, 0x5b, 0xcb, 0x66, 0xbc, 0xb7, 0x2b, 0x78, 0x3e,
  0x13, 0x78, 0x17, 0xbe, 0xe7, 0x98, 0x1a, 0x3d, 0x7b, 0x80, 0x03, 0xbe,
  0x4a, 0xac, 0x21, 0xbc, 0x75, 0x53, 0xd5, 0x3e, 0x8f, 0x03, 0x85, 0x3e,
  0x36, 0x7a, 0x56, 0x3e, 0xfa, 0xb2, 0x97, 0x3e, 0x07, 0x71, 0x1d, 0x3e,
  0x07, 0xff, 0x7a, 0xbe, 0x6d, 0x9d, 0x8f, 0x3e, 0xc6, 0xab, 0xc3, 0x3d,
  0xc3, 0x1f, 0x2c, 0xbd, 0x58, 0x65, 0x06, 0xbd, 0xd3, 0xeb, 0x3b, 0xbc,
  0x85, 0x5b, 0xca, 0x3d, 0x93, 0x00, 0x1c, 0xbe, 0xe5, 0x3c, 0xdf, 0x3d,
  0x64, 0x18, 0x3c, 0x3e, 0x4c, 0x3c, 0x84, 0x3e, 0x74, 0xc0, 0xc1, 0x3d,
  0x4c, 0xf3, 0x7c, 0x3e, 0xaf, 0x6a, 0x61, 0x3e, 0xff, 0x27, 0xf2, 0xbd,
  0x62, 0x7b, 0x2b, 0x3e, 0xc8, 0xd5, 0x26, 0xbe, 0xe6, 0x70, 0x75, 0xbe,
  0xa8, 0xa3, 0x10, 0x3d, 0x40, 0x77, 0x4c, 0xbe, 0x2c, 0x62, 0x1f, 0x3d,
  0x31, 0x4d, 0x4d, 0x3e, 0x43, 0x62, 0x5a, 0x3e, 0x3e, 0x0f, 0x33, 0xbe,
  0x60, 0x69, 0x14, 0xbe, 0xad, 0xa7, 0xf0, 0xbc, 0x4b, 0x0a, 0x2a, 0x3d,
  0x84, 0xa0, 0x24, 0x3e, 0x82, 0x8b, 0xd4, 0x3d, 0x82, 0xc5, 0xa7, 0x3e,
  0x62, 0x07, 0x1e, 0x3e, 0x85, 0xd4, 0x29, 0xbe, 0x7b, 0xdb, 0x6d, 0x3e,
  0x3c, 0x98, 0x26, 0x3e, 0x3a, 0x81, 0xff, 0xbd, 0x28, 0x75, 0x2b, 0xbe,
  0x1e, 0x50, 0x46, 0xbe, 0x69, 0xaf, 0x3c, 0xbe, 0xa1, 0x25, 0x7c, 0xbe,
  0x1f, 0xb7, 0x0b, 0xbd, 0xc5, 0x54, 0x14, 0xbe, 0xd8, 0x80, 0x70, 0x3e,
  0x90, 0x93, 0xad, 0x3d, 0x81, 0x23, 0x42, 0x3d, 0x33, 0x4d, 0x87, 0xbe,
  0xf2, 0xcf, 0x8c, 0x3e, 0xce, 0x75, 0xa9, 0x3e, 0xcf, 0x69, 0x25, 0x3e,
  0xa6, 0xfb, 0xff, 0xff, 0x10, 0x00, 0x00, 0x00, 0x07, 0x00, 0x00, 0x00,
  0x10, 0x00, 0x00, 0x00, 0x34, 0x00, 0x00, 0x00, 0x01, 0x00, 0x00, 0x00,
  0x0a, 0x00, 0x00, 0x00, 0x20, 0x00, 0x00, 0x00, 0x73, 0x65, 0x71, 0x75,
  0x65, 0x6e, 0x74, 0x69, 0x61, 0x6c, 0x5f, 0x31, 0x2f, 0x64, 0x65, 0x6e,
  0x73, 0x65, 0x5f, 0x38, 0x2f, 0x4d, 0x61, 0x74, 0x4d, 0x75, 0x6c, 0x5f,
  0x62, 0x69, 0x61, 0x73, 0x00, 0x00, 0x00, 0x00, 0xe0, 0xfa, 0xff, 0xff,
  0x28, 0x00, 0x00, 0x00, 0xd2, 0x25, 0x62, 0xbd, 0xcd, 0xb1, 0x9a, 0xbd,
  0x08, 0x29, 0xa3, 0xbb, 0x8f, 0x1f, 0x4b, 0xbd, 0xbe, 0xb3, 0xf9, 0x3d,
  0x57, 0x09, 0x66, 0xbe, 0xe9, 0x8c, 0x15, 0xbd, 0xe8, 0xfa, 0xfe, 0x3b,
  0xe0, 0x20, 0xe9, 0xbc, 0x43, 0x15, 0xdd, 0x3d, 0x1a, 0xfc, 0xff, 0xff,
  0x10, 0x00, 0x00, 0x00, 0x06, 0x00, 0x00, 0x00, 0x14, 0x00, 0x00, 0x00,
  0x4c, 0x00, 0x00, 0x00, 0x02, 0x00, 0x00, 0x00, 0x05, 0x00, 0x00, 0x00,
  0x0a, 0x00, 0x00, 0x00, 0x34, 0x00, 0x00, 0x00, 0x73, 0x65, 0x71, 0x75,
  0x65, 0x6e, 0x74, 0x69, 0x61, 0x6c, 0x5f, 0x31, 0x2f, 0x64, 0x65, 0x6e,
  0x73, 0x65, 0x5f, 0x39, 0x2f, 0x4d, 0x61, 0x74, 0x4d, 0x75, 0x6c, 0x2f,
  0x52, 0x65, 0x61, 0x64, 0x56, 0x61, 0x72, 0x69, 0x61, 0x62, 0x6c, 0x65,
  0x4f, 0x70, 0x2f, 0x74, 0x72, 0x61, 0x6e, 0x73, 0x70, 0x6f, 0x73, 0x65,
  0x00, 0x00, 0x00, 0x00, 0x6c, 0xfb, 0xff, 0xff, 0xc8, 0x00, 0x00, 0x00,
  0xfa, 0xf3, 0x9b, 0xbe, 0x0b, 0xa4, 0x37, 0xbc, 0xe5, 0x71, 0x35, 0x3e,
  0x90, 0xb1, 0xa6, 0xbe, 0xf3, 0xc2, 0x75, 0x3e, 0x55, 0x9d, 0x41, 0xbe,
  0x86, 0x30, 0x21, 0x3c, 0x56, 0x53, 0x8b, 0x3e, 0xbf, 0x05, 0x03, 0x3e,
  0x97, 0xbc, 0xa8, 0x3e, 0x1e, 0x93, 0x59, 0x3e, 0x63, 0xc0, 0x86, 0xbe,
  0xdf, 0xef, 0x38, 0x3c, 0xf7, 0xfa, 0x8f, 0x3e, 0xc9, 0x1e, 0x97, 0xbc,
  0xf7, 0x41, 0x70, 0xbe, 0x56, 0x79, 0x4f, 0xbe, 0xe8, 0xff, 0x1d, 0x3d,
  0xdc, 0xd8, 0x7f, 0xbe, 0x4c, 0x2e, 0x16, 0x3e, 0x1a, 0xa4, 0x40, 0xbe,
  0x3b, 0x02, 0xbb, 0x3e, 0xa3, 0x88, 0x82, 0x3e, 0x0e, 0x8a, 0xd0, 0x3e,
  0x9e, 0xa6, 0x1b, 0x3e, 0x59, 0x6c, 0x8e, 0x3e, 0x14, 0x42, 0x40, 0x3d,
  0x43, 0xa8, 0x6a, 0x3d, 0x94, 0xca, 0x45, 0x3d, 0x5c, 0x39, 0x25, 0x3c,
  0x98, 0xaf, 0xd3, 0x3d, 0x7d, 0x7a, 0xc5, 0xbc, 0x17, 0xde, 0xaf, 0xbd,
  0x00, 0x19, 0x1c, 0xbd, 0xee, 0x31, 0x08, 0xbe, 0x6e, 0x77, 0x76, 0x3e,
  0xb1, 0x18, 0xd7, 0x3e, 0xd8, 0xbe, 0x5c, 0xbe, 0x58, 0xeb, 0xbe, 0x3e,
  0x1c, 0xa4, 0x85, 0xbd, 0xf7, 0xfb, 0x58, 0xbe, 0x84, 0x14, 0x2c, 0xbe,
  0x08, 0xc7, 0x5e, 0x3e, 0x0f, 0x5c, 0x8d, 0xbe, 0x6d, 0xb7, 0xe0, 0x3e,
  0xeb, 0x9d, 0xb8, 0x3d, 0xb9, 0xd3, 0xa9, 0x3d, 0x58, 0xce, 0x12, 0xbe,
  0x7f, 0xd7, 0x97, 0xbe, 0xaf, 0xe0, 0xb4, 0x3e, 0x46, 0xfd, 0xff, 0xff,
  0x10, 0x00, 0x00, 0x00, 0x05, 0x00, 0x00, 0x00, 0x14, 0x00, 0x00, 0x00,
  0x4c, 0x00, 0x00, 0x00, 0x02, 0x00, 0x00, 0x00, 0x05, 0x00, 0x00, 0x00,
  0x05, 0x00, 0x00, 0x00, 0x35, 0x00, 0x00, 0x00, 0x73, 0x65, 0x71, 0x75,
  0x65, 0x6e, 0x74, 0x69, 0x61, 0x6c, 0x5f, 0x31, 0x2f, 0x64, 0x65, 0x6e,
  0x73, 0x65, 0x5f, 0x31, 0x30, 0x2f, 0x4d, 0x61, 0x74, 0x4d, 0x75, 0x6c,
  0x2f, 0x52, 0x65, 0x61, 0x64, 0x56, 0x61, 0x72, 0x69, 0x61, 0x62, 0x6c,
  0x65, 0x4f, 0x70, 0x2f, 0x74, 0x72, 0x61, 0x6e, 0x73, 0x70, 0x6f, 0x73,
  0x65, 0x00, 0x00, 0x00, 0x98, 0xfc, 0xff, 0xff, 0x64, 0x00, 0x00, 0x00,
  0x94, 0xb9, 0x66, 0x3c, 0x27, 0x62, 0xbd, 0xbc, 0xdc, 0xa0, 0x53, 0xbe,
  0xed, 0xa4, 0x14, 0xbd, 0xf9, 0xb5, 0x27, 0xbd, 0x6a, 0x8d, 0xa6, 0xbe,
  0x0a, 0x30, 0xb2, 0xbe, 0xd1, 0x21, 0xb6, 0xbe, 0xea, 0x7f, 0x6b, 0xbe,
  0x84, 0x8e, 0x9a, 0xbc, 0x1a, 0x8f, 0xfa, 0xbd, 0x4a, 0xca, 0x26, 0x3e,
  0x98, 0x8b, 0x8c, 0xbe, 0x7d, 0x34, 0x82, 0xbe, 0x98, 0xe8, 0x6f, 0xbd,
  0xfb, 0x6a, 0xdf, 0x3e, 0x05, 0x1a, 0xa9, 0xbe, 0x69, 0x09, 0x04, 0xbd,
  0x63, 0x5c, 0x17, 0xbd, 0xf6, 0x1b, 0x25, 0x3f, 0xe8, 0x51, 0x0f, 0x3e,
  0x42, 0x35, 0xe6, 0xbd, 0xfa, 0x33, 0x13, 0x3f, 0x25, 0x3e, 0xd8, 0x3e,
  0xb8, 0x07, 0xe7, 0x3d, 0x0e, 0xfe, 0xff, 0xff, 0x10, 0x00, 0x00, 0x00,
  0x04, 0x00, 0x00, 0x00, 0x10, 0x00, 0x00, 0x00, 0x34, 0x00, 0x00, 0x00,
  0x01, 0x00, 0x00, 0x00, 0x05, 0x00, 0x00, 0x00, 0x21, 0x00, 0x00, 0x00,
  0x73, 0x65, 0x71, 0x75, 0x65, 0x6e, 0x74, 0x69, 0x61, 0x6c, 0x5f, 0x31,
  0x2f, 0x64, 0x65, 0x6e, 0x73, 0x65, 0x5f, 0x31, 0x30, 0x2f, 0x4d, 0x61,
  0x74, 0x4d, 0x75, 0x6c, 0x5f, 0x62, 0x69, 0x61, 0x73, 0x00, 0x00, 0x00,
  0x48, 0xfd, 0xff, 0xff, 0x14, 0x00, 0x00, 0x00, 0x00, 0x00, 0x00, 0x00,
  0x00, 0x00, 0x00, 0x00, 0x82, 0x5f, 0x2b, 0xbd, 0x09, 0x23, 0x5e, 0x3e,
  0x8d, 0x09, 0xb6, 0xbe, 0x6e, 0xfe, 0xff, 0xff, 0x10, 0x00, 0x00, 0x00,
  0x03, 0x00, 0x00, 0x00, 0x14, 0x00, 0x00, 0x00, 0x4c, 0x00, 0x00, 0x00,
  0x02, 0x00, 0x00, 0x00, 0x05, 0x00, 0x00, 0x00, 0x05, 0x00, 0x00, 0x00,
  0x35, 0x00, 0x00, 0x00, 0x73, 0x65, 0x71, 0x75, 0x65, 0x6e, 0x74, 0x69,
  0x61, 0x6c, 0x5f, 0x31, 0x2f, 0x64, 0x65, 0x6e, 0x73, 0x65, 0x5f, 0x31,
  0x31, 0x2f, 0x4d, 0x61, 0x74, 0x4d, 0x75, 0x6c, 0x2f, 0x52, 0x65, 0x61,
  0x64, 0x56, 0x61, 0x72, 0x69, 0x61, 0x62, 0x6c, 0x65, 0x4f, 0x70, 0x2f,
  0x74, 0x72, 0x61, 0x6e, 0x73, 0x70, 0x6f, 0x73, 0x65, 0x00, 0x00, 0x00,
  0xc0, 0xfd, 0xff, 0xff, 0x64, 0x00, 0x00, 0x00, 0x3c, 0x08, 0x6f, 0xbe,
  0x53, 0x1c, 0xb0, 0xbe, 0x43, 0xec, 0x39, 0xbd, 0xeb, 0xde, 0xdd, 0x3d,
  0x89, 0xe7, 0x3a, 0xbd, 0xf2, 0x05, 0x7b, 0x3b, 0x50, 0xe7, 0x22, 0x3e,
  0xc0, 0x07, 0xc0, 0x3e, 0xf9, 0xd7, 0x31, 0x3e, 0x13, 0x2b, 0x01, 0x3f,
  0x48, 0x5f, 0x9e, 0xbc, 0xb2, 0x5a, 0x70, 0xbd, 0x79, 0xd5, 0x9e, 0xbe,
  0x76, 0xf3, 0x84, 0x3b, 0xa1, 0xa9, 0x6c, 0xbe, 0xae, 0x83, 0x8b, 0x3e,
  0x98, 0xb0, 0xc5, 0x3d, 0xbc, 0x4a, 0x8d, 0xbe, 0xb0, 0x22, 0xd6, 0x3e,
  0x83, 0xdc, 0x1e, 0xbe, 0xb5, 0x41, 0xb7, 0xbe, 0x15, 0xfc, 0x64, 0x3e,
  0x6b, 0x2a, 0xd8, 0x3a, 0x2f, 0x2d, 0x11, 0x3f, 0x8a, 0xba, 0xc0, 0xbe,
  0x36, 0xff, 0xff, 0xff, 0x10, 0x00, 0x00, 0x00, 0x02, 0x00, 0x00, 0x00,
  0x14, 0x00, 0x00, 0x00, 0x4c, 0x00, 0x00, 0x00, 0x02, 0x00, 0x00, 0x00,
  0x05, 0x00, 0x00, 0x00, 0x05, 0x00, 0x00, 0x00, 0x35, 0x00, 0x00, 0x00,
  0x73, 0x65, 0x71, 0x75, 0x65, 0x6e, 0x74, 0x69, 0x61, 0x6c, 0x5f, 0x31,
  0x2f, 0x64, 0x65, 0x6e, 0x73, 0x65, 0x5f, 0x31, 0x32, 0x2f, 0x4d, 0x61,
  0x74, 0x4d, 0x75, 0x6c, 0x2f, 0x52, 0x65, 0x61, 0x64, 0x56, 0x61, 0x72,
  0x69, 0x61, 0x62, 0x6c, 0x65, 0x4f, 0x70, 0x2f, 0x74, 0x72, 0x61, 0x6e,
  0x73, 0x70, 0x6f, 0x73, 0x65, 0x00, 0x00, 0x00, 0x88, 0xfe, 0xff, 0xff,
  0x64, 0x00, 0x00, 0x00, 0x85, 0x84, 0xce, 0xbe, 0x44, 0xaa, 0x2b, 0x3c,
  0x5e, 0xb4, 0x95, 0xbe, 0xdc, 0xea, 0x55, 0xbe, 0x36, 0x90, 0x38, 0xbe,
  0x74, 0xe8, 0x4e, 0xbe, 0x29, 0xf5, 0xe3, 0x3c, 0x87, 0xea, 0xa6, 0x3e,
  0xbd, 0xd0, 0x92, 0xbe, 0x59, 0xac, 0x85, 0x3e, 0x18, 0x30, 0x8e, 0xbe,
  0xfa, 0xa4, 0xd9, 0xbe, 0x6a, 0x34, 0x11, 0x3e, 0x78, 0x4f, 0xe5, 0x3d,
  0xd0, 0x3b, 0x0e, 0x3f, 0x92, 0xe1, 0x98, 0x3e, 0x92, 0xc7, 0x6c, 0xbe,
  0xca, 0x7c, 0xd0, 0x3d, 0x2b, 0x1a, 0xb0, 0x3e, 0x9b, 0x4d, 0x35, 0x3e,
  0xe3, 0xc0, 0x79, 0x3e, 0x57, 0x03, 0x4b, 0xbe, 0x38, 0xd8, 0x70, 0x3e,
  0xaf, 0xbe, 0xb6, 0x3e, 0x21, 0x86, 0x12, 0xbe, 0x00, 0x00, 0x0e, 0x00,
  0x14, 0x00, 0x04, 0x00, 0x00, 0x00, 0x08, 0x00, 0x0c, 0x00, 0x10, 0x00,
  0x0e, 0x00, 0x00, 0x00, 0x10, 0x00, 0x00, 0x00, 0x01, 0x00, 0x00, 0x00,
  0x10, 0x00, 0x00, 0x00, 0x34, 0x00, 0x00, 0x00, 0x01, 0x00, 0x00, 0x00,
  0x01, 0x00, 0x00, 0x00, 0x21, 0x00, 0x00, 0x00, 0x73, 0x65, 0x71, 0x75,
  0x65, 0x6e, 0x74, 0x69, 0x61, 0x6c, 0x5f, 0x31, 0x2f, 0x64, 0x65, 0x6e,
  0x73, 0x65, 0x5f, 0x31, 0x33, 0x2f, 0x4d, 0x61, 0x74, 0x4d, 0x75, 0x6c,
  0x5f, 0x62, 0x69, 0x61, 0x73, 0x00, 0x00, 0x00, 0x48, 0xff, 0xff, 0xff,
  0x04, 0x00, 0x00, 0x00, 0x2e, 0xe5, 0xcd, 0x3f, 0x0e, 0x00, 0x00, 0x00,
  0x58, 0x03, 0x00, 0x00, 0x04, 0x03, 0x00, 0x00, 0xc4, 0x02, 0x00, 0x00,
  0x84, 0x02, 0x00, 0x00, 0x44, 0x02, 0x00, 0x00, 0x04, 0x02, 0x00, 0x00,
  0xc4, 0x01, 0x00, 0x00, 0x84, 0x01, 0x00, 0x00, 0x44, 0x01, 0x00, 0x00,
  0x04, 0x01, 0x00, 0x00, 0xc4, 0x00, 0x00, 0x00, 0x84, 0x00, 0x00, 0x00,
  0x44, 0x00, 0x00, 0x00, 0x18, 0x00, 0x00, 0x00, 0x14, 0x00, 0x14, 0x00,
  0x04, 0x00, 0x08, 0x00, 0x0c, 0x00, 0x00, 0x00, 0x00, 0x00, 0x00, 0x00,
  0x00, 0x00, 0x10, 0x00, 0x14, 0x00, 0x00, 0x00, 0x01, 0x00, 0x00, 0x00,
  0x0c, 0x00, 0x00, 0x00, 0x10, 0x00, 0x00, 0x00, 0x14, 0x00, 0x00, 0x00,
  0x01, 0x00, 0x00, 0x00, 0x0e, 0x00, 0x00, 0x00, 0x01, 0x00, 0x00, 0x00,
  0x00, 0x00, 0x00, 0x00, 0x00, 0x00, 0x00, 0x00, 0x30, 0xfd, 0xff, 0xff,
  0x00, 0x00, 0x00, 0x08, 0x10, 0x00, 0x00, 0x00, 0x1c, 0x00, 0x00, 0x00,
  0x28, 0x00, 0x00, 0x00, 0x1c, 0x00, 0x00, 0x00, 0x03, 0x00, 0x00, 0x00,
  0x0d, 0x00, 0x00, 0x00, 0x0f, 0x00, 0x00, 0x00, 0x10, 0x00, 0x00, 0x00,
  0x01, 0x00, 0x00, 0x00, 0x0e, 0x00, 0x00, 0x00, 0x00, 0x00, 0x00, 0x00,
  0x04, 0x00, 0x04, 0x00, 0x04, 0x00, 0x00, 0x00, 0x6c, 0xfd, 0xff, 0xff,
  0x00, 0x00, 0x00, 0x08, 0x10, 0x00, 0x00, 0x00, 0x1c, 0x00, 0x00, 0x00,
  0x24, 0x00, 0x00, 0x00, 0x1c, 0x00, 0x00, 0x00, 0x03, 0x00, 0x00, 0x00,
  0x0a, 0x00, 0x00, 0x00, 0x0b, 0x00, 0x00, 0x00, 0x0c, 0x00, 0x00, 0x00,
  0x01, 0x00, 0x00, 0x00, 0x0d, 0x00, 0x00, 0x00, 0x00, 0x00, 0x00, 0x00,
  0xda, 0xfc, 0xff, 0xff, 0x00, 0x00, 0x00, 0x01, 0xa8, 0xfd, 0xff, 0xff,
  0x00, 0x00, 0x00, 0x08, 0x10, 0x00, 0x00, 0x00, 0x1c, 0x00, 0x00, 0x00,
  0x24, 0x00, 0x00, 0x00, 0x1c, 0x00, 0x00, 0x00, 0x03, 0x00, 0x00, 0x00,
  0x07, 0x00, 0x00, 0x00, 0x08, 0x00, 0x00, 0x00, 0x09, 0x00, 0x00, 0x00,
  0x01, 0x00, 0x00, 0x00, 0x0a, 0x00, 0x00, 0x00, 0x00, 0x00, 0x00, 0x00,
  0x16, 0xfd, 0xff, 0xff, 0x00, 0x00, 0x00, 0x01, 0xe4, 0xfd, 0xff, 0xff,
  0x00, 0x00, 0x00, 0x08, 0x10, 0x00, 0x00, 0x00, 0x1c, 0x00, 0x00, 0x00,
  0x24, 0x00, 0x00, 0x00, 0x1c, 0x00, 0x00, 0x00, 0x03, 0x00, 0x00, 0x00,
  0x28, 0x00, 0x00, 0x00, 0x05, 0x00, 0x00, 0x00, 0x06, 0x00, 0x00, 0x00,
  0x01, 0x00, 0x00, 0x00, 0x07, 0x00, 0x00, 0x00, 0x00, 0x00, 0x00, 0x00,
  0x52, 0xfd, 0xff, 0xff, 0x00, 0x00, 0x00, 0x01, 0x20, 0xfe, 0xff, 0xff,
  0x00, 0x00, 0x00, 0x08, 0x10, 0x00, 0x00, 0x00, 0x1c, 0x00, 0x00, 0x00,
  0x24, 0x00, 0x00, 0x00, 0x1c, 0x00, 0x00, 0x00, 0x03, 0x00, 0x00, 0x00,
  0x25, 0x00, 0x00, 0x00, 0x26, 0x00, 0x00, 0x00, 0x27, 0x00, 0x00, 0x00,
  0x01, 0x00, 0x00, 0x00, 0x28, 0x00, 0x00, 0x00, 0x00, 0x00, 0x00, 0x00,
  0x8e, 0xfd, 0xff, 0xff, 0x00, 0x00, 0x00, 0x01, 0x5c, 0xfe, 0xff, 0xff,
  0x00, 0x00, 0x00, 0x08, 0x10, 0x00, 0x00, 0x00, 0x1c, 0x00, 0x00, 0x00,
  0x24, 0x00, 0x00, 0x00, 0x1c, 0x00, 0x00, 0x00, 0x03, 0x00, 0x00, 0x00,
  0x22, 0x00, 0x00, 0x00, 0x23, 0x00, 0x00, 0x00, 0x24, 0x00, 0x00, 0x00,
  0x01, 0x00, 0x00, 0x00, 0x25, 0x00, 0x00, 0x00, 0x00, 0x00, 0x00, 0x00,
  0xca, 0xfd, 0xff, 0xff, 0x00, 0x00, 0x00, 0x01, 0x98, 0xfe, 0xff, 0xff,
  0x00, 0x00, 0x00, 0x08, 0x10, 0x00, 0x00, 0x00, 0x1c, 0x00, 0x00, 0x00,
  0x24, 0x00, 0x00, 0x00, 0x1c, 0x00, 0x00, 0x00, 0x03, 0x00, 0x00, 0x00,
  0x1f, 0x00, 0x00, 0x00, 0x20, 0x00, 0x00, 0x00, 0x21, 0x00, 0x00, 0x00,
  0x01, 0x00, 0x00, 0x00, 0x22, 0x00, 0x00, 0x00, 0x00, 0x00, 0x00, 0x00,
  0x06, 0xfe, 0xff, 0xff, 0x00, 0x00, 0x00, 0x01, 0xd4, 0xfe, 0xff, 0xff,
  0x00, 0x00, 0x00, 0x08, 0x10, 0x00, 0x00, 0x00, 0x1c, 0x00, 0x00, 0x00,
  0x24, 0x00, 0x00, 0x00, 0x1c, 0x00, 0x00, 0x00, 0x03, 0x00, 0x00, 0x00,
  0x1c, 0x00, 0x00, 0x00, 0x1d, 0x00, 0x00, 0x00, 0x1e, 0x00, 0x00, 0x00,
  0x01, 0x00, 0x00, 0x00, 0x1f, 0x00, 0x00, 0x00, 0x00, 0x00, 0x00, 0x00,
  0x42, 0xfe, 0xff, 0xff, 0x00, 0x00, 0x00, 0x01, 0x10, 0xff, 0xff, 0xff,
  0x00, 0x00, 0x00, 0x08, 0x10, 0x00, 0x00, 0x00, 0x1c, 0x00, 0x00, 0x00,
  0x24, 0x00, 0x00, 0x00, 0x1c, 0x00, 0x00, 0x00, 0x03, 0x00, 0x00, 0x00,
  0x19, 0x00, 0x00, 0x00, 0x1a, 0x00, 0x00, 0x00, 0x1b, 0x00, 0x00, 0x00,
  0x01, 0x00, 0x00, 0x00, 0x1c, 0x00, 0x00, 0x00, 0x00, 0x00, 0x00, 0x00,
  0x7e, 0xfe, 0xff, 0xff, 0x00, 0x00, 0x00, 0x01, 0x4c, 0xff, 0xff, 0xff,
  0x00, 0x00, 0x00, 0x08, 0x10, 0x00, 0x00, 0x00, 0x1c, 0x00, 0x00, 0x00,
  0x24, 0x00, 0x00, 0x00, 0x1c, 0x00, 0x00, 0x00, 0x03, 0x00, 0x00, 0x00,
  0x16, 0x00, 0x00, 0x00, 0x17, 0x00, 0x00, 0x00, 0x18, 0x00, 0x00, 0x00,
  0x01, 0x00, 0x00, 0x00, 0x19, 0x00, 0x00, 0x00, 0x00, 0x00, 0x00, 0x00,
  0xba, 0xfe, 0xff, 0xff, 0x00, 0x00, 0x00, 0x01, 0x88, 0xff, 0xff, 0xff,
  0x00, 0x00, 0x00, 0x08, 0x10, 0x00, 0x00, 0x00, 0x1c, 0x00, 0x00, 0x00,
  0x24, 0x00, 0x00, 0x00, 0x1c, 0x00, 0x00, 0x00, 0x03, 0x00, 0x00, 0x00,
  0x13, 0x00, 0x00, 0x00, 0x14, 0x00, 0x00, 0x00, 0x15, 0x00, 0x00, 0x00,
  0x01, 0x00, 0x00, 0x00, 0x16, 0x00, 0x00, 0x00, 0x00, 0x00, 0x00, 0x00,
  0xf6, 0xfe, 0xff, 0xff, 0x00, 0x00, 0x00, 0x01, 0xc4, 0xff, 0xff, 0xff,
  0x00, 0x00, 0x00, 0x08, 0x10, 0x00, 0x00, 0x00, 0x1c, 0x00, 0x00, 0x00,
  0x24, 0x00, 0x00, 0x00, 0x1c, 0x00, 0x00, 0x00, 0x03, 0x00, 0x00, 0x00,
  0x04, 0x00, 0x00, 0x00, 0x11, 0x00, 0x00, 0x00, 0x12, 0x00, 0x00, 0x00,
  0x01, 0x00, 0x00, 0x00, 0x13, 0x00, 0x00, 0x00, 0x00, 0x00, 0x00, 0x00,
  0x32, 0xff, 0xff, 0xff, 0x00, 0x00, 0x00, 0x01, 0x14, 0x00, 0x18, 0x00,
  0x00, 0x00, 0x08, 0x00, 0x0c, 0x00, 0x07, 0x00, 0x10, 0x00, 0x00, 0x00,
  0x00, 0x00, 0x14, 0x00, 0x14, 0x00, 0x00, 0x00, 0x00, 0x00, 0x00, 0x08,
  0x10, 0x00, 0x00, 0x00, 0x1c, 0x00, 0x00, 0x00, 0x24, 0x00, 0x00, 0x00,
  0x1c, 0x00, 0x00, 0x00, 0x03, 0x00, 0x00, 0x00, 0x01, 0x00, 0x00, 0x00,
  0x02, 0x00, 0x00, 0x00, 0x03, 0x00, 0x00, 0x00, 0x01, 0x00, 0x00, 0x00,
  0x04, 0x00, 0x00, 0x00, 0x00, 0x00, 0x00, 0x00, 0x82, 0xff, 0xff, 0xff,
  0x00, 0x00, 0x00, 0x01, 0x02, 0x00, 0x00, 0x00, 0x10, 0x00, 0x00, 0x00,
  0x04, 0x00, 0x00, 0x00, 0x96, 0xff, 0xff, 0xff, 0x00, 0x00, 0x00, 0x0e,
  0x9e, 0xff, 0xff, 0xff, 0x00, 0x00, 0x00, 0x09, 0xa6, 0xff, 0xff, 0xff,
  0x00, 0x00, 0x00, 0x09, 0xae, 0xff, 0xff, 0xff, 0x00, 0x00, 0x00, 0x09,
  0xb6, 0xff, 0xff, 0xff, 0x00, 0x00, 0x00, 0x09, 0xbe, 0xff, 0xff, 0xff,
  0x00, 0x00, 0x00, 0x09, 0xc6, 0xff, 0xff, 0xff, 0x00, 0x00, 0x00, 0x09,
  0xce, 0xff, 0xff, 0xff, 0x00, 0x00, 0x00, 0x09, 0xd6, 0xff, 0xff, 0xff,
  0x00, 0x00, 0x00, 0x09, 0xde, 0xff, 0xff, 0xff, 0x00, 0x00, 0x00, 0x09,
  0xe6, 0xff, 0xff, 0xff, 0x00, 0x00, 0x00, 0x09, 0xfa, 0xff, 0xff, 0xff,
  0x00, 0x09, 0x06, 0x00, 0x06, 0x00, 0x05, 0x00, 0x06, 0x00, 0x00, 0x00,
  0x00, 0x09, 0x06, 0x00, 0x08, 0x00, 0x07, 0x00, 0x06, 0x00, 0x00, 0x00,
  0x00, 0x00, 0x00, 0x09
};
const int g_ice_maker_model_data_len = 13276;
